{
  "version": "1.0",
  "truncation": null,
  "padding": null,
  "added_tokens": [
    {
      "id": 0,
      "content": "[UNK]",
      "single_word": false,
      "lstrip": false,
      "rstrip": false,
      "normalized": false,
      "special": true
    },
    {
      "id": 1,
      "content": "[CLS]",
      "single_word": false,
      "lstrip": false,
      "rstrip": false,
      "normalized": false,
      "special": true
    },
    {
      "id": 2,
      "content": "[SEP]",
      "single_word": false,
      "lstrip": false,
      "rstrip": false,
      "normalized": false,
      "special": true
    },
    {
      "id": 3,
      "content": "[PAD]",
      "single_word": false,
      "lstrip": false,
      "rstrip": false,
      "normalized": false,
      "special": true
    },
    {
      "id": 4,
      "content": "[MASK]",
      "single_word": false,
      "lstrip": false,
      "rstrip": false,
      "normalized": false,
      "special": true
    }
  ],
  "normalizer": null,
  "pre_tokenizer": {
    "type": "Whitespace"
  },
  "post_processor": null,
  "decoder": null,
  "model": {
    "type": "BPE",
    "dropout": null,
    "unk_token": "[UNK]",
    "continuing_subword_prefix": null,
    "end_of_word_suffix": null,
    "fuse_unk": false,
    "byte_fallback": false,
    "ignore_merges": false,
    "vocab": {
      "[UNK]": 0,
      "[CLS]": 1,
      "[SEP]": 2,
      "[PAD]": 3,
      "[MASK]": 4,
      "!": 5,
      "\"": 6,
      "#": 7,
      "$": 8,
      "%": 9,
      "&": 10,
      "'": 11,
      "(": 12,
      ")": 13,
      "*": 14,
      "+": 15,
      ",": 16,
      "-": 17,
      ".": 18,
      "/": 19,
      "0": 20,
      "1": 21,
      "2": 22,
      "3": 23,
      "4": 24,
      "5": 25,
      "6": 26,
      "7": 27,
      "8": 28,
      "9": 29,
      ":": 30,
      ";": 31,
      "<": 32,
      "=": 33,
      ">": 34,
      "?": 35,
      "@": 36,
      "A": 37,
      "B": 38,
      "C": 39,
      "D": 40,
      "E": 41,
      "F": 42,
      "G": 43,
      "H": 44,
      "I": 45,
      "J": 46,
      "K": 47,
      "L": 48,
      "M": 49,
      "N": 50,
      "O": 51,
      "P": 52,
      "Q": 53,
      "R": 54,
      "S": 55,
      "T": 56,
      "U": 57,
      "V": 58,
      "W": 59,
      "X": 60,
      "Y": 61,
      "Z": 62,
      "[": 63,
      "\\": 64,
      "]": 65,
      "^": 66,
      "_": 67,
      "`": 68,
      "a": 69,
      "b": 70,
      "c": 71,
      "d": 72,
      "e": 73,
      "f": 74,
      "g": 75,
      "h": 76,
      "i": 77,
      "j": 78,
      "k": 79,
      "l": 80,
      "m": 81,
      "n": 82,
      "o": 83,
      "p": 84,
      "q": 85,
      "r": 86,
      "s": 87,
      "t": 88,
      "u": 89,
      "v": 90,
      "w": 91,
      "x": 92,
      "y": 93,
      "z": 94,
      "{": 95,
      "|": 96,
      "}": 97,
      "~": 98,
      "": 99,
      "": 100,
      "": 101,
      "": 102,
      "": 103,
      "": 104,
      "": 105,
      "": 106,
      "": 107,
      "": 108,
      "": 109,
      "": 110,
      "": 111,
      "": 112,
      "": 113,
      "": 114,
      "": 115,
      "": 116,
      "": 117,
      "": 118,
      "": 119,
      "": 120,
      "": 121,
      "": 122,
      "": 123,
      "": 124,
      "": 125,
      "¡": 126,
      "¢": 127,
      "£": 128,
      "¤": 129,
      "¥": 130,
      "¦": 131,
      "§": 132,
      "¨": 133,
      "©": 134,
      "ª": 135,
      "«": 136,
      "¬": 137,
      "­": 138,
      "®": 139,
      "¯": 140,
      "°": 141,
      "±": 142,
      "²": 143,
      "³": 144,
      "´": 145,
      "µ": 146,
      "¶": 147,
      "·": 148,
      "¸": 149,
      "¹": 150,
      "º": 151,
      "»": 152,
      "¼": 153,
      "½": 154,
      "¾": 155,
      "¿": 156,
      "Â": 157,
      "Ã": 158,
      "Ä": 159,
      "Æ": 160,
      "Ê": 161,
      "Ë": 162,
      "Ì": 163,
      "Í": 164,
      "Ï": 165,
      "×": 166,
      "Ù": 167,
      "à": 168,
      "á": 169,
      "â": 170,
      "ã": 171,
      "ä": 172,
      "å": 173,
      "æ": 174,
      "ç": 175,
      "é": 176,
      "ê": 177,
      "ë": 178,
      "ì": 179,
      "í": 180,
      "ï": 181,
      "ð": 182,
      "ó": 183,
      "ô": 184,
      "ö": 185,
      "÷": 186,
      "ú": 187,
      "Đ": 188,
      "đ": 189,
      "ę": 190,
      "ı": 191,
      "Œ": 192,
      "œ": 193,
      "Š": 194,
      "š": 195,
      "Ÿ": 196,
      "Ž": 197,
      "ž": 198,
      "ƒ": 199,
      "ư": 200,
      "ʻ": 201,
      "ˆ": 202,
      "˜": 203,
      "α": 204,
      "ả": 205,
      "ấ": 206,
      "ể": 207,
      "ợ": 208,
      "ủ": 209,
      "ữ": 210,
      "ỳ": 211,
      "​": 212,
      "‍": 213,
      "‎": 214,
      "‐": 215,
      "–": 216,
      "—": 217,
      "‘": 218,
      "’": 219,
      "‚": 220,
      "“": 221,
      "”": 222,
      "„": 223,
      "†": 224,
      "‡": 225,
      "•": 226,
      "…": 227,
      "‬": 228,
      "‭": 229,
      "‰": 230,
      "‹": 231,
      "›": 232,
      "⁉": 233,
      "⁠": 234,
      "€": 235,
      "™": 236,
      "↑": 237,
      "→": 238,
      "⏳": 239,
      "●": 240,
      "☠": 241,
      "☹": 242,
      "☺": 243,
      "♀": 244,
      "♂": 245,
      "♥": 246,
      "⚠": 247,
      "⚡": 248,
      "⛅": 249,
      "⛽": 250,
      "✅": 251,
      "✌": 252,
      "✨": 253,
      "❌": 254,
      "❓": 255,
      "❤": 256,
      "➡": 257,
      "➲": 258,
      "⬇": 259,
      "》": 260,
      "ツ": 261,
      "️": 262,
      "﻿": 263,
      "𝗘": 264,
      "𝗛": 265,
      "𝗠": 266,
      "𝗧": 267,
      "𝗮": 268,
      "𝗯": 269,
      "𝗰": 270,
      "𝗱": 271,
      "𝗲": 272,
      "𝗴": 273,
      "𝗶": 274,
      "𝗹": 275,
      "𝗻": 276,
      "𝗼": 277,
      "𝗽": 278,
      "𝗿": 279,
      "𝘀": 280,
      "𝘁": 281,
      "𝘂": 282,
      "𝘅": 283,
      "𝟭": 284,
      "🌊": 285,
      "🌷": 286,
      "🍃": 287,
      "🎓": 288,
      "🏴": 289,
      "🏻": 290,
      "🏼": 291,
      "🏽": 292,
      "🐕": 293,
      "🐟": 294,
      "🐰": 295,
      "👇": 296,
      "👋": 297,
      "👍": 298,
      "👩": 299,
      "💀": 300,
      "💅": 301,
      "💋": 302,
      "💔": 303,
      "💕": 304,
      "💖": 305,
      "💗": 306,
      "💚": 307,
      "💛": 308,
      "💜": 309,
      "💝": 310,
      "💨": 311,
      "💩": 312,
      "💫": 313,
      "💸": 314,
      "📷": 315,
      "🔃": 316,
      "🔥": 317,
      "🔴": 318,
      "🖕": 319,
      "🖤": 320,
      "😀": 321,
      "😁": 322,
      "😂": 323,
      "😅": 324,
      "😆": 325,
      "😇": 326,
      "😊": 327,
      "😌": 328,
      "😍": 329,
      "😏": 330,
      "😐": 331,
      "😑": 332,
      "😒": 333,
      "😓": 334,
      "😔": 335,
      "😕": 336,
      "😖": 337,
      "😚": 338,
      "😜": 339,
      "😞": 340,
      "😠": 341,
      "😢": 342,
      "😣": 343,
      "😥": 344,
      "😦": 345,
      "😨": 346,
      "😩": 347,
      "😪": 348,
      "😫": 349,
      "😬": 350,
      "😭": 351,
      "😮": 352,
      "😱": 353,
      "😳": 354,
      "😵": 355,
      "😹": 356,
      "🙁": 357,
      "🙂": 358,
      "🙃": 359,
      "🙄": 360,
      "🙈": 361,
      "🙋": 362,
      "🙌": 363,
      "🙏": 364,
      "🚩": 365,
      "🛑": 366,
      "🤍": 367,
      "🤔": 368,
      "🤕": 369,
      "🤗": 370,
      "🤞": 371,
      "🤡": 372,
      "🤣": 373,
      "🤦": 374,
      "🤩": 375,
      "🤫": 376,
      "🤭": 377,
      "🤯": 378,
      "🤷": 379,
      "🥕": 380,
      "🥰": 381,
      "🥱": 382,
      "🥲": 383,
      "🥳": 384,
      "🥹": 385,
      "🥺": 386,
      "🧡": 387,
      "🫠": 388,
      "🫢": 389,
      "🫣": 390,
      "🫤": 391,
      "🫶": 392,
      "th": 393,
      "in": 394,
      "an": 395,
      "er": 396,
      "ing": 397,
      "to": 398,
      "on": 399,
      "re": 400,
      "at": 401,
      "en": 402,
      "ou": 403,
      "st": 404,
      "me": 405,
      "and": 406,
      "al": 407,
      "no": 408,
      "is": 409,
      "the": 410,
      "or": 411,
      "it": 412,
      "se": 413,
      "ha": 414,
      "ve": 415,
      "be": 416,
      "my": 417,
      "le": 418,
      "ly": 419,
      "ed": 420,
      "of": 421,
      "el": 422,
      "not": 423,
      "ar": 424,
      "li": 425,
      "so": 426,
      "as": 427,
      "am": 428,
      "do": 429,
      "fe": 430,
      "wh": 431,
      "ay": 432,
      "ke": 433,
      "ver": 434,
      "ut": 435,
      "have": 436,
      "that": 437,
      "de": 438,
      "wi": 439,
      "ti": 440,
      "he": 441,
      "for": 442,
      "ch": 443,
      "one": 444,
      "gh": 445,
      "ust": 446,
      "out": 447,
      "ld": 448,
      "go": 449,
      "ri": 450,
      "ro": 451,
      "ll": 452,
      "et": 453,
      "mo": 454,
      "thing": 455,
      "but": 456,
      "ic": 457,
      "ab": 458,
      "lo": 459,
      "es": 460,
      "ac": 461,
      "just": 462,
      "with": 463,
      "ant": 464,
      "feel": 465,
      "ther": 466,
      "ad": 467,
      "this": 468,
      "ever": 469,
      "ca": 470,
      "now": 471,
      "ho": 472,
      "su": 473,
      "any": 474,
      "id": 475,
      "you": 476,
      "ent": 477,
      "can": 478,
      "was": 479,
      "ally": 480,
      "ion": 481,
      "like": 482,
      "co": 483,
      "ould": 484,
      "ght": 485,
      "pe": 486,
      "use": 487,
      "ss": 488,
      "want": 489,
      "all": 490,
      "wor": 491,
      "end": 492,
      "king": 493,
      "some": 494,
      "un": 495,
      "ter": 496,
      "lf": 497,
      "get": 498,
      "are": 499,
      "self": 500,
      "pp": 501,
      "ma": 502,
      "if": 503,
      "ce": 504,
      "ple": 505,
      "know": 506,
      "day": 507,
      "time": 508,
      "up": 509,
      "ex": 510,
      "AA": 511,
      "pre": 512,
      "we": 513,
      "about": 514,
      "way": 515,
      "ry": 516,
      "cause": 517,
      "ir": 518,
      "sh": 519,
      "her": 520,
      "po": 521,
      "ain": 522,
      "od": 523,
      "ag": 524,
      "ne": 525,
      "ven": 526,
      "life": 527,
      "what": 528,
      "con": 529,
      "..": 530,
      "every": 531,
      "because": 532,
      "been": 533,
      "myself": 534,
      "ur": 535,
      "ate": 536,
      "art": 537,
      "ill": 538,
      "more": 539,
      "ear": 540,
      "per": 541,
      "how": 542,
      "fu": 543,
      "im": 544,
      "ation": 545,
      "will": 546,
      "ep": 547,
      "had": 548,
      "when": 549,
      "ast": 550,
      "they": 551,
      "thin": 552,
      "di": 553,
      "even": 554,
      "nd": 555,
      "would": 556,
      "riend": 557,
      "ople": 558,
      "year": 559,
      "rom": 560,
      "ind": 561,
      "people": 562,
      "really": 563,
      "ive": 564,
      "ough": 565,
      "hel": 566,
      "com": 567,
      "friend": 568,
      "cannot": 569,
      "ment": 570,
      "from": 571,
      "depre": 572,
      "ack": 573,
      "mu": 574,
      "ving": 575,
      "see": 576,
      "red": 577,
      "she": 578,
      "other": 579,
      "ide": 580,
      "ere": 581,
      "ck": 582,
      "ting": 583,
      "ong": 584,
      "ell": 585,
      "pro": 586,
      "going": 587,
      "think": 588,
      "ta": 589,
      "sed": 590,
      "help": 591,
      "ra": 592,
      "ight": 593,
      "ts": 594,
      "ru": 595,
      "don": 596,
      "them": 597,
      "ess": 598,
      "AAAA": 599,
      "who": 600,
      "there": 601,
      "sa": 602,
      "pl": 603,
      "did": 604,
      "il": 605,
      "wn": 606,
      "make": 607,
      "tion": 608,
      "happ": 609,
      "fo": 610,
      "work": 611,
      "te": 612,
      "af": 613,
      "xi": 614,
      "ge": 615,
      "much": 616,
      "never": 617,
      "try": 618,
      "der": 619,
      "being": 620,
      "our": 621,
      "ble": 622,
      "over": 623,
      "sp": 624,
      "able": 625,
      "jo": 626,
      "anxi": 627,
      "too": 628,
      "has": 629,
      "ought": 630,
      "whi": 631,
      "ound": 632,
      "only": 633,
      "could": 634,
      "depress": 635,
      "My": 636,
      "ist": 637,
      "tal": 638,
      "start": 639,
      "ous": 640,
      "ety": 641,
      "back": 642,
      "int": 643,
      "us": 644,
      "The": 645,
      "gu": 646,
      "ap": 647,
      "got": 648,
      "ine": 649,
      "ways": 650,
      "very": 651,
      "sto": 652,
      "ci": 653,
      "Th": 654,
      "things": 655,
      "need": 656,
      "thought": 657,
      "feeling": 658,
      "act": 659,
      "ily": 660,
      "med": 661,
      "years": 662,
      "ol": 663,
      "bet": 664,
      "qu": 665,
      "har": 666,
      "mp": 667,
      "wa": 668,
      "by": 669,
      "here": 670,
      "anxiety": 671,
      "Wh": 672,
      "It": 673,
      "ok": 674,
      "mon": 675,
      "anything": 676,
      "cho": 677,
      "still": 678,
      "ms": 679,
      "good": 680,
      "ity": 681,
      "man": 682,
      "something": 683,
      "friends": 684,
      "say": 685,
      "depression": 686,
      "ish": 687,
      "ul": 688,
      "ty": 689,
      "most": 690,
      "then": 691,
      "your": 692,
      "love": 693,
      "less": 694,
      "always": 695,
      "than": 696,
      "its": 697,
      "where": 698,
      "anymore": 699,
      "off": 700,
      "ct": 701,
      "better": 702,
      "read": 703,
      "him": 704,
      "son": 705,
      "dis": 706,
      "live": 707,
      "ek": 708,
      "long": 709,
      "bad": 710,
      "after": 711,
      "fa": 712,
      "come": 713,
      "But": 714,
      "does": 715,
      "ps": 716,
      "ow": 717,
      "anyone": 718,
      "again": 719,
      "So": 720,
      "week": 721,
      "everything": 722,
      "rea": 723,
      "ince": 724,
      "mb": 725,
      "take": 726,
      "fam": 727,
      "ried": 728,
      "month": 729,
      "care": 730,
      "ated": 731,
      "bo": 732,
      "right": 733,
      "fore": 734,
      "ace": 735,
      "ful": 736,
      "person": 737,
      "times": 738,
      "someone": 739,
      "family": 740,
      "job": 741,
      "talk": 742,
      "rough": 743,
      "down": 744,
      "fer": 745,
      "nothing": 746,
      "...": 747,
      "nt": 748,
      "suic": 749,
      "led": 750,
      "cking": 751,
      "keep": 752,
      "last": 753,
      "into": 754,
      "pain": 755,
      "ssed": 756,
      "ice": 757,
      "tell": 758,
      "also": 759,
      "why": 760,
      "hate": 761,
      "ure": 762,
      "age": 763,
      "since": 764,
      "est": 765,
      "ang": 766,
      "ort": 767,
      "lit": 768,
      "AAAAAAAA": 769,
      "rel": 770,
      "through": 771,
      "ext": 772,
      "shit": 773,
      "sit": 774,
      "leep": 775,
      "gr": 776,
      "kill": 777,
      "which": 778,
      "ard": 779,
      "getting": 780,
      "stu": 781,
      "And": 782,
      "real": 783,
      "wo": 784,
      "die": 785,
      "ig": 786,
      "point": 787,
      "ody": 788,
      "fucking": 789,
      "should": 790,
      "iz": 791,
      "app": 792,
      "body": 793,
      "alth": 794,
      "lot": 795,
      "happen": 796,
      "ating": 797,
      "doing": 798,
      "having": 799,
      "ick": 800,
      "hard": 801,
      "new": 802,
      "find": 803,
      "gg": 804,
      "before": 805,
      "sc": 806,
      "stre": 807,
      "br": 808,
      "night": 809,
      "few": 810,
      "sleep": 811,
      "chool": 812,
      "ser": 813,
      "ence": 814,
      "wr": 815,
      "fin": 816,
      "school": 817,
      "ten": 818,
      "pare": 819,
      "ite": 820,
      "ass": 821,
      "tr": 822,
      "tired": 823,
      "ually": 824,
      "else": 825,
      "trying": 826,
      "started": 827,
      "were": 828,
      "lea": 829,
      "gre": 830,
      "around": 831,
      "happy": 832,
      "vi": 833,
      "irst": 834,
      "low": 835,
      "everyone": 836,
      "peri": 837,
      "days": 838,
      "cont": 839,
      "ning": 840,
      "fel": 841,
      "side": 842,
      "away": 843,
      "under": 844,
      "health": 845,
      "therap": 846,
      "cou": 847,
      "shi": 848,
      "may": 849,
      "No": 850,
      "well": 851,
      "sure": 852,
      "felt": 853,
      "om": 854,
      "reas": 855,
      "told": 856,
      "cl": 857,
      "their": 858,
      "alone": 859,
      "tor": 860,
      "first": 861,
      "hur": 862,
      "mor": 863,
      "while": 864,
      "fi": 865,
      "home": 866,
      "made": 867,
      "ph": 868,
      "stand": 869,
      "head": 870,
      "20": 871,
      "hope": 872,
      "ago": 873,
      "chi": 874,
      "said": 875,
      "months": 876,
      "tle": 877,
      "used": 878,
      "tried": 879,
      "his": 880,
      "wish": 881,
      "che": 882,
      "ask": 883,
      "let": 884,
      "mind": 885,
      "give": 886,
      "depressed": 887,
      "ys": 888,
      "these": 889,
      "look": 890,
      "brea": 891,
      "ers": 892,
      "inter": 893,
      "stop": 894,
      "mat": 895,
      "part": 896,
      "la": 897,
      "nor": 898,
      "put": 899,
      "worse": 900,
      "du": 901,
      "mis": 902,
      "reason": 903,
      "mal": 904,
      "enough": 905,
      "nts": 906,
      "reme": 907,
      "hi": 908,
      "supp": 909,
      "ance": 910,
      "experi": 911,
      "same": 912,
      "dif": 913,
      "sing": 914,
      "thoughts": 915,
      "op": 916,
      "past": 917,
      "went": 918,
      "old": 919,
      "dr": 920,
      "ose": 921,
      "thinking": 922,
      "mental": 923,
      "He": 924,
      "ness": 925,
      "ready": 926,
      "ft": 927,
      "This": 928,
      "ling": 929,
      "wanted": 930,
      "soci": 931,
      "cent": 932,
      "cared": 933,
      "many": 934,
      "world": 935,
      "ath": 936,
      "feels": 937,
      "proble": 938,
      "parents": 939,
      "bro": 940,
      "stru": 941,
      "fuck": 942,
      "sad": 943,
      "own": 944,
      "ny": 945,
      "lie": 946,
      "sy": 947,
      "kind": 948,
      "done": 949,
      "makes": 950,
      "clo": 951,
      "stant": 952,
      "living": 953,
      "though": 954,
      "medic": 955,
      "spe": 956,
      "mber": 957,
      "post": 958,
      "actually": 959,
      "How": 960,
      "bu": 961,
      "ies": 962,
      "relation": 963,
      "best": 964,
      "little": 965,
      "pt": 966,
      "ically": 967,
      "ea": 968,
      "mean": 969,
      "relationshi": 970,
      "If": 971,
      "tic": 972,
      "suicide": 973,
      "bed": 974,
      "na": 975,
      "ward": 976,
      "til": 977,
      "without": 978,
      "sur": 979,
      "bit": 980,
      "hour": 981,
      "left": 982,
      "stress": 983,
      "doc": 984,
      ").": 985,
      "bab": 986,
      "pr": 987,
      "fun": 988,
      "pret": 989,
      "scared": 990,
      "move": 991,
      "row": 992,
      "urn": 993,
      "gir": 994,
      "understand": 995,
      "lar": 996,
      "mom": 997,
      "cry": 998,
      "str": 999,
      "two": 1000,
      "motion": 1001,
      "cer": 1002,
      "psy": 1003,
      "min": 1004,
      "strugg": 1005,
      "enc": 1006,
      "deal": 1007,
      "won": 1008,
      "What": 1009,
      "today": 1010,
      "cle": 1011,
      "maybe": 1012,
      "constant": 1013,
      "idal": 1014,
      "AAAAAAAAAAAAAAAA": 1015,
      "until": 1016,
      "lost": 1017,
      "vent": 1018,
      "ga": 1019,
      "high": 1020,
      "hu": 1021,
      "bi": 1022,
      "des": 1023,
      "issu": 1024,
      "wrong": 1025,
      "ction": 1026,
      "heart": 1027,
      "place": 1028,
      "Every": 1029,
      "suicidal": 1030,
      "amp": 1031,
      "emotion": 1032,
      "already": 1033,
      "comple": 1034,
      "almost": 1035,
      "ef": 1036,
      "another": 1037,
      "fort": 1038,
      "adv": 1039,
      "those": 1040,
      "agno": 1041,
      "car": 1042,
      "ner": 1043,
      "mone": 1044,
      "cal": 1045,
      "She": 1046,
      "normal": 1047,
      "att": 1048,
      "stay": 1049,
      "leave": 1050,
      "doctor": 1051,
      "diagno": 1052,
      "tru": 1053,
      "ying": 1054,
      "differ": 1055,
      "sm": 1056,
      "ener": 1057,
      "ouse": 1058,
      "ately": 1059,
      "plan": 1060,
      "suf": 1061,
      "cur": 1062,
      "didn": 1063,
      "tive": 1064,
      "hand": 1065,
      "ult": 1066,
      "pu": 1067,
      "dec": 1068,
      "taking": 1069,
      "bably": 1070,
      "pped": 1071,
      "tre": 1072,
      "sha": 1073,
      "orry": 1074,
      "ange": 1075,
      "came": 1076,
      "money": 1077,
      "den": 1078,
      "might": 1079,
      "Any": 1080,
      "pretty": 1081,
      "sen": 1082,
      "making": 1083,
      "wat": 1084,
      "col": 1085,
      "symp": 1086,
      "tra": 1087,
      "10": 1088,
      "house": 1089,
      "hurt": 1090,
      "sometimes": 1091,
      "ff": 1092,
      "ank": 1093,
      "working": 1094,
      "relationship": 1095,
      "ree": 1096,
      "complete": 1097,
      "ary": 1098,
      "probably": 1099,
      "order": 1100,
      "turn": 1101,
      "worth": 1102,
      "oking": 1103,
      "par": 1104,
      "When": 1105,
      "brain": 1106,
      "therapy": 1107,
      "suffer": 1108,
      "others": 1109,
      "ations": 1110,
      "ise": 1111,
      "AN": 1112,
      "weeks": 1113,
      "belie": 1114,
      "sympto": 1115,
      "ssi": 1116,
      "ase": 1117,
      "In": 1118,
      "vo": 1119,
      "call": 1120,
      "ious": 1121,
      "ream": 1122,
      "ia": 1123,
      "social": 1124,
      "cently": 1125,
      "matter": 1126,
      "room": 1127,
      "break": 1128,
      "iting": 1129,
      "ste": 1130,
      "pan": 1131,
      "seems": 1132,
      "next": 1133,
      "onest": 1134,
      "cess": 1135,
      "Li": 1136,
      "different": 1137,
      "RE": 1138,
      "ical": 1139,
      "lu": 1140,
      "show": 1141,
      "child": 1142,
      "rible": 1143,
      "sol": 1144,
      "comm": 1145,
      "tri": 1146,
      "Why": 1147,
      "inc": 1148,
      "imp": 1149,
      "exist": 1150,
      "possi": 1151,
      "set": 1152,
      "iness": 1153,
      "ute": 1154,
      "ions": 1155,
      "joy": 1156,
      "ak": 1157,
      "gy": 1158,
      "guess": 1159,
      "sick": 1160,
      "aw": 1161,
      "once": 1162,
      "least": 1163,
      "Do": 1164,
      "colle": 1165,
      "kid": 1166,
      "ted": 1167,
      "ses": 1168,
      "rent": 1169,
      "We": 1170,
      "ither": 1171,
      "such": 1172,
      "finally": 1173,
      "ken": 1174,
      "dit": 1175,
      "gi": 1176,
      "dad": 1177,
      "talking": 1178,
      "They": 1179,
      "looking": 1180,
      "therapist": 1181,
      "ng": 1182,
      "tiv": 1183,
      "polar": 1184,
      "eas": 1185,
      "close": 1186,
      "great": 1187,
      "**": 1188,
      "hours": 1189,
      "enti": 1190,
      "sist": 1191,
      "ching": 1192,
      "whole": 1193,
      "fear": 1194,
      "gone": 1195,
      "wal": 1196,
      "line": 1197,
      "advice": 1198,
      "remember": 1199,
      "honest": 1200,
      "coming": 1201,
      "found": 1202,
      "hor": 1203,
      "play": 1204,
      "emp": 1205,
      "stuff": 1206,
      "believe": 1207,
      "blo": 1208,
      "vers": 1209,
      "rest": 1210,
      "fr": 1211,
      "ob": 1212,
      "men": 1213,
      "list": 1214,
      "yet": 1215,
      "IT": 1216,
      "liter": 1217,
      "um": 1218,
      "Its": 1219,
      "recently": 1220,
      "Some": 1221,
      "death": 1222,
      "attack": 1223,
      "zy": 1224,
      "wake": 1225,
      "ative": 1226,
      "experience": 1227,
      "mother": 1228,
      "change": 1229,
      "please": 1230,
      "dri": 1231,
      "sorry": 1232,
      "je": 1233,
      "Is": 1234,
      "temp": 1235,
      "completely": 1236,
      "You": 1237,
      "Just": 1238,
      "To": 1239,
      "took": 1240,
      "become": 1241,
      "realiz": 1242,
      "situ": 1243,
      "constantly": 1244,
      "meds": 1245,
      "ital": 1246,
      "phys": 1247,
      "symptoms": 1248,
      "ched": 1249,
      "happened": 1250,
      "girl": 1251,
      "seem": 1252,
      "big": 1253,
      "college": 1254,
      "ans": 1255,
      "ird": 1256,
      "ending": 1257,
      "Be": 1258,
      "wonder": 1259,
      "sever": 1260,
      "moment": 1261,
      "experienc": 1262,
      "etc": 1263,
      "either": 1264,
      "diagnosed": 1265,
      "fail": 1266,
      "anxious": 1267,
      "Now": 1268,
      "panic": 1269,
      "problem": 1270,
      "issues": 1271,
      "uring": 1272,
      "ual": 1273,
      "pay": 1274,
      "lat": 1275,
      "soon": 1276,
      "literally": 1277,
      "due": 1278,
      "ot": 1279,
      "iso": 1280,
      "All": 1281,
      "fut": 1282,
      "cra": 1283,
      "cept": 1284,
      "stud": 1285,
      "bas": 1286,
      "cour": 1287,
      "ue": 1288,
      "da": 1289,
      "mar": 1290,
      "doesn": 1291,
      "upid": 1292,
      "future": 1293,
      "problems": 1294,
      "pa": 1295,
      "light": 1296,
      "stupid": 1297,
      "extreme": 1298,
      "dream": 1299,
      "cut": 1300,
      "episo": 1301,
      "couple": 1302,
      "cted": 1303,
      "contro": 1304,
      "cons": 1305,
      "fall": 1306,
      "quest": 1307,
      "log": 1308,
      "fine": 1309,
      "eat": 1310,
      "rist": 1311,
      "dead": 1312,
      "worry": 1313,
      "sex": 1314,
      "sub": 1315,
      "ink": 1316,
      "interest": 1317,
      "Thank": 1318,
      "KE": 1319,
      "ju": 1320,
      "MO": 1321,
      "cr": 1322,
      "bipolar": 1323,
      "enjoy": 1324,
      "morning": 1325,
      "possible": 1326,
      "comfort": 1327,
      "fight": 1328,
      "hear": 1329,
      "mess": 1330,
      "feelings": 1331,
      "face": 1332,
      "ided": 1333,
      "medication": 1334,
      "For": 1335,
      "TA": 1336,
      "current": 1337,
      "okay": 1338,
      "si": 1339,
      "raid": 1340,
      "saying": 1341,
      "support": 1342,
      "each": 1343,
      "ANY": 1344,
      "idea": 1345,
      "gether": 1346,
      "tt": 1347,
      "together": 1348,
      "ign": 1349,
      "hosp": 1350,
      "mi": 1351,
      "boy": 1352,
      "appo": 1353,
      "conf": 1354,
      "alive": 1355,
      "serve": 1356,
      "IN": 1357,
      "bor": 1358,
      "situation": 1359,
      "hospital": 1360,
      "far": 1361,
      "motiv": 1362,
      "afraid": 1363,
      "bur": 1364,
      "ds": 1365,
      "dam": 1366,
      "ping": 1367,
      "hold": 1368,
      "spon": 1369,
      "pass": 1370,
      "usu": 1371,
      "pri": 1372,
      "plain": 1373,
      "00": 1374,
      "ility": 1375,
      "mer": 1376,
      "ended": 1377,
      "coun": 1378,
      "??": 1379,
      "nu": 1380,
      "....": 1381,
      "hy": 1382,
      "everyday": 1383,
      "arely": 1384,
      "longer": 1385,
      "cre": 1386,
      "),": 1387,
      "yes": 1388,
      "weird": 1389,
      "sho": 1390,
      "loved": 1391,
      "respon": 1392,
      "beg": 1393,
      "fic": 1394,
      "MORE": 1395,
      "appoint": 1396,
      "test": 1397,
      "sent": 1398,
      "thank": 1399,
      "bl": 1400,
      "TAKE": 1401,
      "secon": 1402,
      "worst": 1403,
      "open": 1404,
      "run": 1405,
      "serious": 1406,
      "honestly": 1407,
      "scri": 1408,
      "full": 1409,
      "ANYMORE": 1410,
      "AAAAAAAAAAAAAAAAAAAAAAAAAAAAAAAA": 1411,
      "cu": 1412,
      "during": 1413,
      "later": 1414,
      "add": 1415,
      "wer": 1416,
      "disorder": 1417,
      "gs": 1418,
      "attemp": 1419,
      "lear": 1420,
      "top": 1421,
      "cially": 1422,
      "control": 1423,
      "gets": 1424,
      "fact": 1425,
      "dro": 1426,
      "fully": 1427,
      "les": 1428,
      "action": 1429,
      "ie": 1430,
      "hell": 1431,
      "deserve": 1432,
      "hit": 1433,
      "contin": 1434,
      "struggling": 1435,
      "often": 1436,
      "chang": 1437,
      "!!": 1438,
      "sim": 1439,
      "asked": 1440,
      "worried": 1441,
      "crying": 1442,
      "game": 1443,
      "vis": 1444,
      "Al": 1445,
      "fect": 1446,
      "cus": 1447,
      "Id": 1448,
      "sk": 1449,
      "miss": 1450,
      "telling": 1451,
      "That": 1452,
      "stead": 1453,
      "gotten": 1454,
      "bring": 1455,
      "event": 1456,
      "There": 1457,
      "starting": 1458,
      "val": 1459,
      "suck": 1460,
      "--": 1461,
      "single": 1462,
      "cy": 1463,
      "hal": 1464,
      "anti": 1465,
      "uni": 1466,
      "htt": 1467,
      "phone": 1468,
      "solute": 1469,
      "ned": 1470,
      "young": 1471,
      "ved": 1472,
      "ves": 1473,
      "ash": 1474,
      "hang": 1475,
      "listen": 1476,
      "both": 1477,
      "wants": 1478,
      "state": 1479,
      "Not": 1480,
      "small": 1481,
      "sense": 1482,
      "cts": 1483,
      "Like": 1484,
      "200": 1485,
      "stuck": 1486,
      "guy": 1487,
      "human": 1488,
      "decided": 1489,
      "absolute": 1490,
      "sound": 1491,
      "ming": 1492,
      "ider": 1493,
      "energy": 1494,
      "reading": 1495,
      "ments": 1496,
      "ugh": 1497,
      "needed": 1498,
      "vious": 1499,
      "treat": 1500,
      "nice": 1501,
      "May": 1502,
      "ins": 1503,
      "ati": 1504,
      "father": 1505,
      "comp": 1506,
      "mg": 1507,
      "guys": 1508,
      "entire": 1509,
      "vide": 1510,
      "posit": 1511,
      "osed": 1512,
      "lic": 1513,
      "onely": 1514,
      "extremely": 1515,
      "stopped": 1516,
      "called": 1517,
      "deep": 1518,
      "food": 1519,
      "brother": 1520,
      "expe": 1521,
      "gra": 1522,
      "chiat": 1523,
      "gen": 1524,
      "hes": 1525,
      "yourself": 1526,
      "barely": 1527,
      "personal": 1528,
      "second": 1529,
      "vie": 1530,
      "ked": 1531,
      "lfriend": 1532,
      "ces": 1533,
      "mag": 1534,
      "press": 1535,
      "wast": 1536,
      "lonely": 1537,
      "knew": 1538,
      "lease": 1539,
      "Then": 1540,
      "cor": 1541,
      "nobody": 1542,
      "says": 1543,
      "ake": 1544,
      "av": 1545,
      "short": 1546,
      "mood": 1547,
      "gener": 1548,
      "horrible": 1549,
      "trau": 1550,
      "inside": 1551,
      "seeing": 1552,
      "miser": 1553,
      "girlfriend": 1554,
      "medi": 1555,
      "half": 1556,
      "void": 1557,
      "supposed": 1558,
      "dru": 1559,
      "res": 1560,
      "ced": 1561,
      "18": 1562,
      "free": 1563,
      "Even": 1564,
      "eating": 1565,
      "exc": 1566,
      "ctive": 1567,
      "neg": 1568,
      "psychiat": 1569,
      "strong": 1570,
      "boyfriend": 1571,
      "bly": 1572,
      "ident": 1573,
      "ited": 1574,
      "haust": 1575,
      "comes": 1576,
      "weight": 1577,
      "gest": 1578,
      "haven": 1579,
      "slow": 1580,
      "apart": 1581,
      "sul": 1582,
      "check": 1583,
      "super": 1584,
      "De": 1585,
      "killing": 1586,
      "usually": 1587,
      "ier": 1588,
      "push": 1589,
      "At": 1590,
      "truly": 1591,
      "class": 1592,
      "suffering": 1593,
      "meet": 1594,
      "fix": 1595,
      "chest": 1596,
      "episode": 1597,
      "exhaust": 1598,
      "vel": 1599,
      "Af": 1600,
      "ates": 1601,
      "using": 1602,
      "30": 1603,
      "ach": 1604,
      "psycho": 1605,
      "blood": 1606,
      "dont": 1607,
      "ark": 1608,
      "basically": 1609,
      "course": 1610,
      "severe": 1611,
      "consider": 1612,
      "moved": 1613,
      "manic": 1614,
      "anger": 1615,
      "instead": 1616,
      "angry": 1617,
      "oc": 1618,
      "wit": 1619,
      "vid": 1620,
      "suc": 1621,
      "Ill": 1622,
      "oo": 1623,
      "hurts": 1624,
      "Maybe": 1625,
      ":/": 1626,
      "ding": 1627,
      "died": 1628,
      "arly": 1629,
      "guil": 1630,
      "currently": 1631,
      "TH": 1632,
      "ills": 1633,
      "reci": 1634,
      "llow": 1635,
      "As": 1636,
      "fucked": 1637,
      "ile": 1638,
      "15": 1639,
      "sis": 1640,
      "After": 1641,
      "tain": 1642,
      "ee": 1643,
      "online": 1644,
      "story": 1645,
      "grad": 1646,
      "gave": 1647,
      "dden": 1648,
      "appe": 1649,
      "broke": 1650,
      "mist": 1651,
      "goes": 1652,
      "pur": 1653,
      "form": 1654,
      "ruin": 1655,
      "ER": 1656,
      "ities": 1657,
      "mentally": 1658,
      "Does": 1659,
      "exam": 1660,
      "grou": 1661,
      "ised": 1662,
      "ween": 1663,
      "question": 1664,
      "ug": 1665,
      "motivation": 1666,
      "late": 1667,
      "lose": 1668,
      "mid": 1669,
      "dest": 1670,
      "ize": 1671,
      "explain": 1672,
      "Re": 1673,
      "cat": 1674,
      "cancer": 1675,
      "wasn": 1676,
      "terrible": 1677,
      "whatever": 1678,
      "x200": 1679,
      "diffic": 1680,
      "wards": 1681,
      "x200B": 1682,
      "iled": 1683,
      "happens": 1684,
      "outside": 1685,
      "spend": 1686,
      "idk": 1687,
      "ability": 1688,
      "psychiatrist": 1689,
      "helped": 1690,
      "als": 1691,
      "espe": 1692,
      "pping": 1693,
      "sel": 1694,
      "crazy": 1695,
      "asking": 1696,
      "issue": 1697,
      "tomor": 1698,
      "especially": 1699,
      "empty": 1700,
      "ost": 1701,
      "accept": 1702,
      "ont": 1703,
      "sister": 1704,
      "isn": 1705,
      "count": 1706,
      "tomorrow": 1707,
      ";#": 1708,
      "bus": 1709,
      "ger": 1710,
      "Please": 1711,
      "On": 1712,
      "appreci": 1713,
      "absolutely": 1714,
      "conv": 1715,
      "saw": 1716,
      "quite": 1717,
      "numb": 1718,
      "ens": 1719,
      "conne": 1720,
      "trust": 1721,
      "ught": 1722,
      "worked": 1723,
      "seen": 1724,
      "knowing": 1725,
      "video": 1726,
      "ING": 1727,
      "pres": 1728,
      "rid": 1729,
      "losing": 1730,
      "bt": 1731,
      "desp": 1732,
      "handle": 1733,
      "://": 1734,
      "partner": 1735,
      "ster": 1736,
      "spent": 1737,
      "physical": 1738,
      "aut": 1739,
      "fast": 1740,
      "Can": 1741,
      "healthy": 1742,
      "aged": 1743,
      "trigg": 1744,
      "terri": 1745,
      "inking": 1746,
      "ester": 1747,
      "lately": 1748,
      "qui": 1749,
      "emotions": 1750,
      "forward": 1751,
      "sudden": 1752,
      "cover": 1753,
      "comfortable": 1754,
      "lying": 1755,
      "wanting": 1756,
      "fre": 1757,
      "smo": 1758,
      "notic": 1759,
      "ones": 1760,
      "esterday": 1761,
      "dying": 1762,
      "dark": 1763,
      "struggle": 1764,
      "Hi": 1765,
      "hind": 1766,
      "met": 1767,
      "taken": 1768,
      "wait": 1769,
      "Fe": 1770,
      "bla": 1771,
      "oud": 1772,
      "appointment": 1773,
      "function": 1774,
      "ants": 1775,
      "share": 1776,
      "jor": 1777,
      "rather": 1778,
      "illed": 1779,
      "Hel": 1780,
      "sign": 1781,
      "follow": 1782,
      "waiting": 1783,
      "clean": 1784,
      "ni": 1785,
      "kids": 1786,
      "assed": 1787,
      "between": 1788,
      "irth": 1789,
      "grow": 1790,
      "ber": 1791,
      "ings": 1792,
      "god": 1793,
      "peace": 1794,
      "cares": 1795,
      "option": 1796,
      "writing": 1797,
      "ped": 1798,
      "Or": 1799,
      "mach": 1800,
      "easy": 1801,
      "arr": 1802,
      "harm": 1803,
      "mit": 1804,
      "quit": 1805,
      "stressed": 1806,
      "burden": 1807,
      "sort": 1808,
      "avoid": 1809,
      "cial": 1810,
      "imag": 1811,
      "ized": 1812,
      "given": 1813,
      "birth": 1814,
      "fied": 1815,
      "ton": 1816,
      "born": 1817,
      "step": 1818,
      "drink": 1819,
      "broken": 1820,
      "ane": 1821,
      "happiness": 1822,
      "difficult": 1823,
      "kept": 1824,
      "anyway": 1825,
      "ount": 1826,
      "memor": 1827,
      "book": 1828,
      "sear": 1829,
      "sess": 1830,
      "walk": 1831,
      "Sometimes": 1832,
      "bul": 1833,
      "three": 1834,
      "whel": 1835,
      "hood": 1836,
      "coho": 1837,
      "figu": 1838,
      "failure": 1839,
      "spo": 1840,
      "active": 1841,
      "miserable": 1842,
      "type": 1843,
      "commit": 1844,
      "behind": 1845,
      "Thanks": 1846,
      "https": 1847,
      "focus": 1848,
      "couldn": 1849,
      "view": 1850,
      "spir": 1851,
      "clu": 1852,
      "group": 1853,
      "damn": 1854,
      "lied": 1855,
      "giving": 1856,
      "ism": 1857,
      "true": 1858,
      "luck": 1859,
      "wondering": 1860,
      "band": 1861,
      "inv": 1862,
      "major": 1863,
      "watch": 1864,
      "frea": 1865,
      "rush": 1866,
      "ren": 1867,
      "turned": 1868,
      "front": 1869,
      "country": 1870,
      "import": 1871,
      "fac": 1872,
      "prof": 1873,
      "vor": 1874,
      "acc": 1875,
      "commun": 1876,
      "write": 1877,
      "alcoho": 1878,
      "rand": 1879,
      "cold": 1880,
      "emotional": 1881,
      "pul": 1882,
      "ama": 1883,
      "aa": 1884,
      "effe": 1885,
      "lay": 1886,
      "allow": 1887,
      "forever": 1888,
      "continue": 1889,
      "negative": 1890,
      "resul": 1891,
      "words": 1892,
      "\".": 1893,
      "overwhel": 1894,
      "grand": 1895,
      "meaning": 1896,
      "shitty": 1897,
      "lives": 1898,
      "HA": 1899,
      "12": 1900,
      "knows": 1901,
      "irr": 1902,
      "mus": 1903,
      "genu": 1904,
      "begin": 1905,
      "sleeping": 1906,
      "ered": 1907,
      "eyes": 1908,
      "exp": 1909,
      "ford": 1910,
      "cked": 1911,
      "physically": 1912,
      "success": 1913,
      "depressive": 1914,
      "finish": 1915,
      "important": 1916,
      "positive": 1917,
      "eng": 1918,
      "utes": 1919,
      "happening": 1920,
      "Pe": 1921,
      "certain": 1922,
      "convers": 1923,
      "genuine": 1924,
      "19": 1925,
      "drive": 1926,
      "date": 1927,
      "ilar": 1928,
      "gn": 1929,
      "swe": 1930,
      "early": 1931,
      "gradu": 1932,
      "laugh": 1933,
      "dog": 1934,
      "mul": 1935,
      "inten": 1936,
      "realize": 1937,
      "thetic": 1938,
      "leg": 1939,
      "main": 1940,
      "reality": 1941,
      "intern": 1942,
      "case": 1943,
      "Well": 1944,
      "illness": 1945,
      "reddit": 1946,
      "safe": 1947,
      "Everything": 1948,
      "ref": 1949,
      "ries": 1950,
      "dealing": 1951,
      "afford": 1952,
      "mention": 1953,
      "talked": 1954,
      "mistake": 1955,
      "relationships": 1956,
      "An": 1957,
      "lol": 1958,
      "minutes": 1959,
      "appear": 1960,
      "ouble": 1961,
      "daily": 1962,
      "eventually": 1963,
      "ustr": 1964,
      "study": 1965,
      "24": 1966,
      "AL": 1967,
      "16": 1968,
      "realized": 1969,
      "seriously": 1970,
      "music": 1971,
      "quick": 1972,
      "bother": 1973,
      "period": 1974,
      "noticed": 1975,
      "awful": 1976,
      "sucks": 1977,
      "name": 1978,
      "ax": 1979,
      "ww": 1980,
      "impro": 1981,
      "selves": 1982,
      "useless": 1983,
      "trauma": 1984,
      "ship": 1985,
      "air": 1986,
      "fault": 1987,
      "ific": 1988,
      "Anyone": 1989,
      "thro": 1990,
      "defin": 1991,
      "zing": 1992,
      "uck": 1993,
      "became": 1994,
      "yesterday": 1995,
      "weak": 1996,
      "upset": 1997,
      "similar": 1998,
      "atten": 1999,
      "level": 2000,
      "random": 2001,
      "pic": 2002,
      "cope": 2003,
      "pie": 2004,
      "sug": 2005,
      "worthless": 2006,
      "hypo": 2007,
      "bb": 2008,
      "stomach": 2009,
      "failed": 2010,
      "male": 2011,
      "gain": 2012,
      "velo": 2013,
      "amount": 2014,
      "prescri": 2015,
      "17": 2016,
      "stra": 2017,
      "must": 2018,
      "mine": 2019,
      "abuse": 2020,
      "experienced": 2021,
      "People": 2022,
      "abus": 2023,
      "manage": 2024,
      "answer": 2025,
      "rep": 2026,
      "till": 2027,
      "decis": 2028,
      "lack": 2029,
      "along": 2030,
      "chance": 2031,
      "hole": 2032,
      "However": 2033,
      "lead": 2034,
      "dra": 2035,
      "ye": 2036,
      "moving": 2037,
      "ently": 2038,
      "attacks": 2039,
      "hair": 2040,
      "leaving": 2041,
      "Ha": 2042,
      "attempt": 2043,
      "sum": 2044,
      "ional": 2045,
      "selfish": 2046,
      "attention": 2047,
      "OU": 2048,
      "ded": 2049,
      "oh": 2050,
      "ðŸ": 2051,
      "heard": 2052,
      "Life": 2053,
      "bc": 2054,
      "mostly": 2055,
      "speak": 2056,
      "21": 2057,
      "mic": 2058,
      "games": 2059,
      "develo": 2060,
      "AAAAAAAAAAAAAAAAAAAAAAAAAAAAAAAAAAAAAAAAAAAAAAAAAAAAAAAAAAAAAAAA": 2061,
      "emb": 2062,
      "hus": 2063,
      "isol": 2064,
      "hopeless": 2065,
      "exhausted": 2066,
      "dle": 2067,
      "Feel": 2068,
      "multi": 2069,
      "sib": 2070,
      "wife": 2071,
      "gon": 2072,
      "fair": 2073,
      "ends": 2074,
      "watching": 2075,
      "changed": 2076,
      "pose": 2077,
      "slowly": 2078,
      "opp": 2079,
      "eah": 2080,
      "esca": 2081,
      "playing": 2082,
      "cant": 2083,
      "unk": 2084,
      "PD": 2085,
      "general": 2086,
      "yed": 2087,
      "affe": 2088,
      "against": 2089,
      "tonight": 2090,
      "versity": 2091,
      "pressure": 2092,
      "water": 2093,
      "anno": 2094,
      "unch": 2095,
      "concer": 2096,
      "AD": 2097,
      "obvious": 2098,
      "whe": 2099,
      "perfect": 2100,
      "Also": 2101,
      "whenever": 2102,
      "gress": 2103,
      "tory": 2104,
      "childhood": 2105,
      "Because": 2106,
      "drinking": 2107,
      "frustr": 2108,
      "ild": 2109,
      "char": 2110,
      "mania": 2111,
      "addic": 2112,
      "One": 2113,
      "forget": 2114,
      "hh": 2115,
      "expect": 2116,
      "husband": 2117,
      "pills": 2118,
      "dose": 2119,
      "lon": 2120,
      "ture": 2121,
      "uc": 2122,
      "towards": 2123,
      "means": 2124,
      "mad": 2125,
      "keeps": 2126,
      "Nothing": 2127,
      "exact": 2128,
      "parent": 2129,
      "treatment": 2130,
      "drugs": 2131,
      "text": 2132,
      "dep": 2133,
      "multiple": 2134,
      "pick": 2135,
      "calm": 2136,
      "alcohol": 2137,
      "au": 2138,
      "helps": 2139,
      "aware": 2140,
      "Im": 2141,
      "throw": 2142,
      "surance": 2143,
      "career": 2144,
      "Lo": 2145,
      "beat": 2146,
      "ross": 2147,
      "harder": 2148,
      "build": 2149,
      "huge": 2150,
      "tou": 2151,
      "cycle": 2152,
      "sadness": 2153,
      "woman": 2154,
      "none": 2155,
      "wan": 2156,
      "several": 2157,
      "hot": 2158,
      "God": 2159,
      "vous": 2160,
      "skin": 2161,
      "100": 2162,
      "arm": 2163,
      "hun": 2164,
      ".\"": 2165,
      "win": 2166,
      "lling": 2167,
      "acting": 2168,
      "nat": 2169,
      "somehow": 2170,
      "ugly": 2171,
      "lig": 2172,
      "looked": 2173,
      "stable": 2174,
      "distr": 2175,
      "cas": 2176,
      "needs": 2177,
      "genuinely": 2178,
      "regre": 2179,
      "igno": 2180,
      "Idk": 2181,
      "jobs": 2182,
      "itely": 2183,
      "abusive": 2184,
      "ial": 2185,
      "ano": 2186,
      "reach": 2187,
      "jump": 2188,
      "profess": 2189,
      "caused": 2190,
      "buy": 2191,
      "Today": 2192,
      "ON": 2193,
      "works": 2194,
      "painful": 2195,
      "purpose": 2196,
      "25": 2197,
      "reasons": 2198,
      "terrified": 2199,
      "clear": 2200,
      "experiences": 2201,
      "St": 2202,
      "except": 2203,
      "student": 2204,
      "suggest": 2205,
      "contact": 2206,
      "despite": 2207,
      "depressants": 2208,
      "nervous": 2209,
      "Go": 2210,
      "helping": 2211,
      "vir": 2212,
      "cap": 2213,
      "sitting": 2214,
      "gram": 2215,
      "xic": 2216,
      "exer": 2217,
      "woke": 2218,
      "22": 2219,
      "cting": 2220,
      "ease": 2221,
      "hoping": 2222,
      "takes": 2223,
      "convinc": 2224,
      "finan": 2225,
      "definitely": 2226,
      "fl": 2227,
      "beaut": 2228,
      "hurting": 2229,
      "ben": 2230,
      "ering": 2231,
      "doctors": 2232,
      "bot": 2233,
      "Sorry": 2234,
      "pati": 2235,
      "likely": 2236,
      "birthday": 2237,
      "notice": 2238,
      "trouble": 2239,
      "del": 2240,
      "joke": 2241,
      "regu": 2242,
      "emotionally": 2243,
      "11": 2244,
      "middle": 2245,
      "suddenly": 2246,
      "thre": 2247,
      "guilty": 2248,
      "whether": 2249,
      "diagnosis": 2250,
      "simp": 2251,
      "thinks": 2252,
      "related": 2253,
      "gun": 2254,
      "summer": 2255,
      "immedi": 2256,
      "gl": 2257,
      "keeping": 2258,
      "asses": 2259,
      "relie": 2260,
      "conversation": 2261,
      "cli": 2262,
      "older": 2263,
      "dreams": 2264,
      "sil": 2265,
      "ris": 2266,
      "putting": 2267,
      "easier": 2268,
      "exerc": 2269,
      "ages": 2270,
      "proper": 2271,
      "logist": 2272,
      "ME": 2273,
      "remind": 2274,
      "NO": 2275,
      "flo": 2276,
      "finding": 2277,
      "piece": 2278,
      "word": 2279,
      "teen": 2280,
      "space": 2281,
      "produ": 2282,
      "straight": 2283,
      "condit": 2284,
      "ket": 2285,
      "escape": 2286,
      "vic": 2287,
      "ground": 2288,
      "passed": 2289,
      "twi": 2290,
      "university": 2291,
      "personality": 2292,
      "ith": 2293,
      "redi": 2294,
      "looks": 2295,
      "sat": 2296,
      "ors": 2297,
      "inclu": 2298,
      "asleep": 2299,
      "degre": 2300,
      "ears": 2301,
      "process": 2302,
      "ba": 2303,
      "ring": 2304,
      "embarr": 2305,
      "simply": 2306,
      "reg": 2307,
      "tim": 2308,
      "Hey": 2309,
      "desper": 2310,
      "learn": 2311,
      "figure": 2312,
      "kick": 2313,
      "effort": 2314,
      "dating": 2315,
      "non": 2316,
      "somewhere": 2317,
      "descri": 2318,
      "ST": 2319,
      "sounds": 2320,
      "waste": 2321,
      "heav": 2322,
      "near": 2323,
      "episodes": 2324,
      "fighting": 2325,
      "badly": 2326,
      "lazy": 2327,
      "fit": 2328,
      "vive": 2329,
      "Am": 2330,
      "apartment": 2331,
      "UC": 2332,
      "tu": 2333,
      "tho": 2334,
      "anybody": 2335,
      "themselves": 2336,
      "ron": 2337,
      "rant": 2338,
      "effects": 2339,
      "Fuck": 2340,
      "pathetic": 2341,
      "thanks": 2342,
      "destro": 2343,
      "imagine": 2344,
      "medical": 2345,
      "blame": 2346,
      "bat": 2347,
      "search": 2348,
      "jud": 2349,
      "sou": 2350,
      "poor": 2351,
      "lived": 2352,
      "survive": 2353,
      "falling": 2354,
      "pression": 2355,
      "havi": 2356,
      "however": 2357,
      "existence": 2358,
      "iful": 2359,
      "Everyone": 2360,
      "dou": 2361,
      "toxic": 2362,
      "dire": 2363,
      "ject": 2364,
      "Since": 2365,
      "tail": 2366,
      "known": 2367,
      "teach": 2368,
      "dumb": 2369,
      "impossible": 2370,
      "psych": 2371,
      "stem": 2372,
      "regular": 2373,
      "ail": 2374,
      "ire": 2375,
      "Hello": 2376,
      "50": 2377,
      "note": 2378,
      "regret": 2379,
      "convinced": 2380,
      "yeah": 2381,
      "headac": 2382,
      "society": 2383,
      "14": 2384,
      "gust": 2385,
      "ium": 2386,
      "relate": 2387,
      "Su": 2388,
      "incredi": 2389,
      "ram": 2390,
      "tur": 2391,
      "spec": 2392,
      "city": 2393,
      "star": 2394,
      "cious": 2395,
      "kills": 2396,
      "accident": 2397,
      "shut": 2398,
      "emplo": 2399,
      "amazing": 2400,
      "ances": 2401,
      "Has": 2402,
      "behavi": 2403,
      "dist": 2404,
      "eye": 2405,
      "ising": 2406,
      "ili": 2407,
      "fortun": 2408,
      "Ne": 2409,
      "meant": 2410,
      "bear": 2411,
      "within": 2412,
      "__": 2413,
      "igh": 2414,
      "Sh": 2415,
      "disgust": 2416,
      "drunk": 2417,
      "train": 2418,
      "slight": 2419,
      "suppor": 2420,
      "spect": 2421,
      "degree": 2422,
      "TS": 2423,
      "gives": 2424,
      "sexual": 2425,
      "arent": 2426,
      "funny": 2427,
      "lect": 2428,
      "adult": 2429,
      "appro": 2430,
      "continu": 2431,
      "sive": 2432,
      "term": 2433,
      "running": 2434,
      "rate": 2435,
      "unable": 2436,
      "que": 2437,
      "minute": 2438,
      "fake": 2439,
      "becoming": 2440,
      "wouldn": 2441,
      "trans": 2442,
      "hanging": 2443,
      "apo": 2444,
      "attr": 2445,
      "ceive": 2446,
      "flu": 2447,
      "prom": 2448,
      "grade": 2449,
      "exactly": 2450,
      "interested": 2451,
      "patient": 2452,
      "tern": 2453,
      "og": 2454,
      "present": 2455,
      "neck": 2456,
      "weed": 2457,
      "mum": 2458,
      "married": 2459,
      "bal": 2460,
      "account": 2461,
      "scre": 2462,
      "chie": 2463,
      "actions": 2464,
      "ruined": 2465,
      "example": 2466,
      "mil": 2467,
      "ero": 2468,
      "ational": 2469,
      "pho": 2470,
      "bye": 2471,
      "daught": 2472,
      "improve": 2473,
      "acted": 2474,
      "killed": 2475,
      "seemed": 2476,
      "chat": 2477,
      "worrying": 2478,
      "scream": 2479,
      "progress": 2480,
      "save": 2481,
      "admit": 2482,
      "ption": 2483,
      "insurance": 2484,
      "experiencing": 2485,
      "treated": 2486,
      "beautiful": 2487,
      "Un": 2488,
      "cha": 2489,
      "loss": 2490,
      "simple": 2491,
      "sn": 2492,
      "ines": 2493,
      "Anxi": 2494,
      "door": 2495,
      "confused": 2496,
      "nes": 2497,
      "forced": 2498,
      "intense": 2499,
      "bbies": 2500,
      "23": 2501,
      "nearly": 2502,
      "ortun": 2503,
      "questions": 2504,
      "ALL": 2505,
      "hobbies": 2506,
      "plac": 2507,
      "aking": 2508,
      "road": 2509,
      "power": 2510,
      "women": 2511,
      "baby": 2512,
      "guilt": 2513,
      "immediately": 2514,
      "Last": 2515,
      "SE": 2516,
      "YOU": 2517,
      "achie": 2518,
      "bs": 2519,
      "tells": 2520,
      "proud": 2521,
      "driving": 2522,
      "younger": 2523,
      "TO": 2524,
      "gro": 2525,
      "ied": 2526,
      "haha": 2527,
      "breath": 2528,
      "spiral": 2529,
      "decision": 2530,
      "cir": 2531,
      "anywhere": 2532,
      "waking": 2533,
      "throat": 2534,
      "ined": 2535,
      "reco": 2536,
      "easily": 2537,
      "busy": 2538,
      "burn": 2539,
      "cru": 2540,
      "wise": 2541,
      "system": 2542,
      "force": 2543,
      "bull": 2544,
      "voice": 2545,
      "fur": 2546,
      "aging": 2547,
      "13": 2548,
      "repe": 2549,
      "istic": 2550,
      "drug": 2551,
      "planning": 2552,
      "mare": 2553,
      "wed": 2554,
      "round": 2555,
      "covid": 2556,
      "symptom": 2557,
      "appreciate": 2558,
      "tally": 2559,
      "oft": 2560,
      "UCK": 2561,
      "lish": 2562,
      "inst": 2563,
      "posting": 2564,
      "grate": 2565,
      "hands": 2566,
      "causing": 2567,
      "ably": 2568,
      "appreciated": 2569,
      "twice": 2570,
      "cure": 2571,
      "reje": 2572,
      "tips": 2573,
      "prac": 2574,
      "listening": 2575,
      "Anxiety": 2576,
      "SO": 2577,
      "sun": 2578,
      "quickly": 2579,
      "cried": 2580,
      "relax": 2581,
      "obviously": 2582,
      "black": 2583,
      "fy": 2584,
      "io": 2585,
      "ande": 2586,
      "idence": 2587,
      "choice": 2588,
      "http": 2589,
      "war": 2590,
      "nowhere": 2591,
      "](": 2592,
      "opportun": 2593,
      "incredibly": 2594,
      "fat": 2595,
      "mally": 2596,
      "town": 2597,
      "eliness": 2598,
      "nightmare": 2599,
      ":(": 2600,
      "wear": 2601,
      "weekend": 2602,
      "walking": 2603,
      "picture": 2604,
      "prescribed": 2605,
      "bar": 2606,
      "brought": 2607,
      "internet": 2608,
      "ade": 2609,
      "loving": 2610,
      "missed": 2611,
      "fell": 2612,
      "managed": 2613,
      "although": 2614,
      "opin": 2615,
      "passion": 2616,
      "daughter": 2617,
      "Ti": 2618,
      "totally": 2619,
      "anyways": 2620,
      "struggled": 2621,
      "uncomfortable": 2622,
      "common": 2623,
      "tenti": 2624,
      "swit": 2625,
      "amic": 2626,
      "insane": 2627,
      "loser": 2628,
      "asks": 2629,
      "traumat": 2630,
      "community": 2631,
      "soul": 2632,
      "Ho": 2633,
      "cri": 2634,
      "medications": 2635,
      "antidepressants": 2636,
      "Bi": 2637,
      "FUCK": 2638,
      "pet": 2639,
      "tend": 2640,
      "disappear": 2641,
      "breaking": 2642,
      "solut": 2643,
      "excited": 2644,
      "andemic": 2645,
      "meth": 2646,
      "ticul": 2647,
      "rac": 2648,
      "ond": 2649,
      "invol": 2650,
      "further": 2651,
      "began": 2652,
      "ager": 2653,
      "sle": 2654,
      "trapped": 2655,
      "conscious": 2656,
      "pandemic": 2657,
      "sched": 2658,
      "tem": 2659,
      "company": 2660,
      "bullshit": 2661,
      "hide": 2662,
      "lan": 2663,
      "mani": 2664,
      "pointless": 2665,
      "memories": 2666,
      "regard": 2667,
      "overwhelmed": 2668,
      "accom": 2669,
      "quiet": 2670,
      "lucky": 2671,
      "ronic": 2672,
      "Ch": 2673,
      "area": 2674,
      "gue": 2675,
      "ency": 2676,
      "grateful": 2677,
      "bath": 2678,
      "tom": 2679,
      "ensive": 2680,
      "IS": 2681,
      "tit": 2682,
      "vac": 2683,
      "load": 2684,
      "potenti": 2685,
      "smile": 2686,
      "----": 2687,
      "medicine": 2688,
      "ray": 2689,
      "mix": 2690,
      "learned": 2691,
      "memory": 2692,
      "eth": 2693,
      "goog": 2694,
      "smart": 2695,
      "gonna": 2696,
      "Wor": 2697,
      "complain": 2698,
      "loves": 2699,
      "disease": 2700,
      "sides": 2701,
      "growing": 2702,
      "pub": 2703,
      "apolog": 2704,
      "Pro": 2705,
      "four": 2706,
      "parti": 2707,
      "freaking": 2708,
      "holding": 2709,
      "doubt": 2710,
      "org": 2711,
      "himself": 2712,
      "kinda": 2713,
      "plans": 2714,
      "boring": 2715,
      "fli": 2716,
      "parano": 2717,
      "sli": 2718,
      "throughout": 2719,
      "beginning": 2720,
      "loneliness": 2721,
      "condition": 2722,
      "arently": 2723,
      "previous": 2724,
      "homeless": 2725,
      "breathing": 2726,
      "children": 2727,
      "Have": 2728,
      "skills": 2729,
      "ison": 2730,
      "PTS": 2731,
      "path": 2732,
      "wall": 2733,
      "inse": 2734,
      "drain": 2735,
      "bunch": 2736,
      "unt": 2737,
      "moments": 2738,
      "Should": 2739,
      "PTSD": 2740,
      "IV": 2741,
      "threat": 2742,
      "lier": 2743,
      "staying": 2744,
      "existing": 2745,
      "occas": 2746,
      "successful": 2747,
      "schedu": 2748,
      "ball": 2749,
      "pes": 2750,
      "qual": 2751,
      "izing": 2752,
      "special": 2753,
      "assu": 2754,
      "helpful": 2755,
      "actual": 2756,
      "Being": 2757,
      "allowed": 2758,
      ".)": 2759,
      "ging": 2760,
      "ks": 2761,
      "Anyway": 2762,
      "bri": 2763,
      "din": 2764,
      "ior": 2765,
      "vice": 2766,
      "truth": 2767,
      "exercise": 2768,
      "heal": 2769,
      "program": 2770,
      "grades": 2771,
      "land": 2772,
      "outh": 2773,
      "cool": 2774,
      "necess": 2775,
      "breakdown": 2776,
      "ID": 2777,
      "scary": 2778,
      "tests": 2779,
      "send": 2780,
      "Feeling": 2781,
      "uro": 2782,
      "thes": 2783,
      "choose": 2784,
      "dy": 2785,
      "liked": 2786,
      "express": 2787,
      "valid": 2788,
      "var": 2789,
      "rote": 2790,
      "lt": 2791,
      "por": 2792,
      "normally": 2793,
      "media": 2794,
      "twit": 2795,
      "vol": 2796,
      "itself": 2797,
      "classes": 2798,
      "sibling": 2799,
      "bing": 2800,
      "desire": 2801,
      "Co": 2802,
      "Me": 2803,
      "pun": 2804,
      "dee": 2805,
      "possibly": 2806,
      "connection": 2807,
      "annoying": 2808,
      "Bipolar": 2809,
      "effect": 2810,
      "drop": 2811,
      "THE": 2812,
      "ze": 2813,
      "stressful": 2814,
      "wrote": 2815,
      "mail": 2816,
      "history": 2817,
      "nause": 2818,
      "shower": 2819,
      "restless": 2820,
      "girls": 2821,
      "depend": 2822,
      "touch": 2823,
      "activ": 2824,
      "missing": 2825,
      "Depression": 2826,
      "professional": 2827,
      "sor": 2828,
      "pray": 2829,
      "confidence": 2830,
      "site": 2831,
      "result": 2832,
      "abused": 2833,
      "Ex": 2834,
      "HD": 2835,
      "SS": 2836,
      "ged": 2837,
      "musc": 2838,
      "seek": 2839,
      "\",": 2840,
      ":)": 2841,
      "ah": 2842,
      "bout": 2843,
      "heavy": 2844,
      "With": 2845,
      "interview": 2846,
      "surpr": 2847,
      "increa": 2848,
      "natur": 2849,
      "scar": 2850,
      "shame": 2851,
      "trip": 2852,
      "usual": 2853,
      "trigger": 2854,
      "gri": 2855,
      "tin": 2856,
      "aren": 2857,
      "disappoint": 2858,
      "40": 2859,
      "ED": 2860,
      "shar": 2861,
      "knowled": 2862,
      "understanding": 2863,
      "message": 2864,
      "public": 2865,
      "hated": 2866,
      "research": 2867,
      "logical": 2868,
      "fortunately": 2869,
      "Red": 2870,
      "ian": 2871,
      "pit": 2872,
      "RI": 2873,
      "fant": 2874,
      "wing": 2875,
      "particul": 2876,
      "calling": 2877,
      "poli": 2878,
      "properly": 2879,
      "cing": 2880,
      "caring": 2881,
      "bullied": 2882,
      "communic": 2883,
      "inform": 2884,
      "pleas": 2885,
      "tech": 2886,
      "failing": 2887,
      "smoking": 2888,
      "AT": 2889,
      "VER": 2890,
      "unless": 2891,
      "herself": 2892,
      "considering": 2893,
      "supportive": 2894,
      "key": 2895,
      "coping": 2896,
      "favor": 2897,
      "attempted": 2898,
      "relief": 2899,
      "Most": 2900,
      "ich": 2901,
      "belong": 2902,
      "gym": 2903,
      "excuse": 2904,
      "amictal": 2905,
      "mouth": 2906,
      "pill": 2907,
      "thium": 2908,
      "ress": 2909,
      "bf": 2910,
      "willing": 2911,
      "sensit": 2912,
      "rout": 2913,
      "studying": 2914,
      "chronic": 2915,
      "final": 2916,
      "courage": 2917,
      "cutting": 2918,
      "hearing": 2919,
      "bought": 2920,
      "athy": 2921,
      "frequ": 2922,
      "mistakes": 2923,
      "tears": 2924,
      "offer": 2925,
      "receive": 2926,
      "ships": 2927,
      "letting": 2928,
      "AAAAAAAAAAAAAAAAAAAAAAAAAAAAAAAAAAAAAAAAAAAAAAAAAAAAAAAAAAAAAAAAAAAAAAAAAAAAAAAAAAAAAAAAAAAAAAAAAAAAAAAAAAAAAAAAAAAAAAAAAAAAAAAA": 2929,
      "ric": 2930,
      "shot": 2931,
      "changes": 2932,
      "ADHD": 2933,
      "jour": 2934,
      "strange": 2935,
      "method": 2936,
      "learning": 2937,
      "hung": 2938,
      "sal": 2939,
      "zz": 2940,
      "educ": 2941,
      "cip": 2942,
      "pared": 2943,
      "paying": 2944,
      "mate": 2945,
      "detail": 2946,
      "relative": 2947,
      "viol": 2948,
      "overwhelming": 2949,
      "including": 2950,
      "tough": 2951,
      "recomm": 2952,
      "consist": 2953,
      "visit": 2954,
      "pat": 2955,
      "clin": 2956,
      "law": 2957,
      "comment": 2958,
      "divor": 2959,
      "decide": 2960,
      "meeting": 2961,
      "describe": 2962,
      "os": 2963,
      "feed": 2964,
      "utter": 2965,
      "spending": 2966,
      "smoke": 2967,
      "lion": 2968,
      "teeth": 2969,
      "office": 2970,
      "Help": 2971,
      "awk": 2972,
      "covered": 2973,
      "irrit": 2974,
      "wanna": 2975,
      "Con": 2976,
      "dies": 2977,
      "party": 2978,
      "response": 2979,
      "results": 2980,
      "crush": 2981,
      "mass": 2982,
      "ele": 2983,
      "atic": 2984,
      "ney": 2985,
      "asha": 2986,
      "chan": 2987,
      "ches": 2988,
      "risk": 2989,
      "OR": 2990,
      "ition": 2991,
      "verse": 2992,
      "ices": 2993,
      "streng": 2994,
      "lower": 2995,
      "pm": 2996,
      "rn": 2997,
      "vit": 2998,
      "basic": 2999,
      "number": 3000,
      "dow": 3001,
      "ghost": 3002,
      "ared": 3003,
      "ceed": 3004,
      "These": 3005,
      "expected": 3006,
      "earlier": 3007,
      "extra": 3008,
      "Av": 3009,
      "Over": 3010,
      "mas": 3011,
      "stab": 3012,
      "ift": 3013,
      "ences": 3014,
      "biggest": 3015,
      "pha": 3016,
      "across": 3017,
      "breathe": 3018,
      "clothes": 3019,
      "difference": 3020,
      "situations": 3021,
      "motivated": 3022,
      "aband": 3023,
      "stood": 3024,
      "benef": 3025,
      "information": 3026,
      "yo": 3027,
      "hopefully": 3028,
      "closer": 3029,
      "awkward": 3030,
      "onto": 3031,
      "lies": 3032,
      "lots": 3033,
      "cost": 3034,
      "friendship": 3035,
      "paid": 3036,
      "spot": 3037,
      "everybody": 3038,
      "nights": 3039,
      "building": 3040,
      "abandon": 3041,
      "ran": 3042,
      "return": 3043,
      "turning": 3044,
      "ashamed": 3045,
      "wel": 3046,
      "earth": 3047,
      "starts": 3048,
      "damage": 3049,
      "developed": 3050,
      "Mo": 3051,
      "song": 3052,
      "decent": 3053,
      "somebody": 3054,
      "pushing": 3055,
      "achieve": 3056,
      "First": 3057,
      "bey": 3058,
      "abo": 3059,
      "grew": 3060,
      "hates": 3061,
      "argu": 3062,
      "goals": 3063,
      "title": 3064,
      "fing": 3065,
      "requi": 3066,
      "somewhat": 3067,
      "position": 3068,
      "considered": 3069,
      "gf": 3070,
      "edge": 3071,
      "Which": 3072,
      "news": 3073,
      "gas": 3074,
      "pal": 3075,
      "www": 3076,
      "danger": 3077,
      "rious": 3078,
      "behavior": 3079,
      "goal": 3080,
      "movie": 3081,
      "wasted": 3082,
      "police": 3083,
      "ube": 3084,
      "stri": 3085,
      "ures": 3086,
      "frustrated": 3087,
      "strength": 3088,
      "LE": 3089,
      "pull": 3090,
      "hyper": 3091,
      "Good": 3092,
      "rain": 3093,
      "doe": 3094,
      "forgot": 3095,
      "alot": 3096,
      "une": 3097,
      "disgusting": 3098,
      "bathroom": 3099,
      "apparently": 3100,
      "obsess": 3101,
      "cuss": 3102,
      "options": 3103,
      "solution": 3104,
      "slept": 3105,
      "DR": 3106,
      "relig": 3107,
      "logy": 3108,
      "crash": 3109,
      "responsib": 3110,
      "Recently": 3111,
      "capable": 3112,
      "tors": 3113,
      "holi": 3114,
      "stories": 3115,
      "dropped": 3116,
      "psychotic": 3117,
      "perman": 3118,
      "ideas": 3119,
      "plish": 3120,
      "convince": 3121,
      "loud": 3122,
      "ony": 3123,
      "ilities": 3124,
      "drown": 3125,
      "cowork": 3126,
      "suffered": 3127,
      "vision": 3128,
      "ignore": 3129,
      "places": 3130,
      "Of": 3131,
      "besides": 3132,
      "arily": 3133,
      "oloft": 3134,
      "tress": 3135,
      "awake": 3136,
      "ible": 3137,
      "hab": 3138,
      "fee": 3139,
      "clearly": 3140,
      "wasting": 3141,
      "accomplish": 3142,
      "AvPD": 3143,
      "vity": 3144,
      "lock": 3145,
      "iling": 3146,
      "foc": 3147,
      "surger": 3148,
      "sensitive": 3149,
      "yell": 3150,
      "reached": 3151,
      "pains": 3152,
      "paper": 3153,
      "cuz": 3154,
      "rock": 3155,
      "teacher": 3156,
      "EN": 3157,
      "tex": 3158,
      "coward": 3159,
      "rying": 3160,
      "bored": 3161,
      "knowledge": 3162,
      "aver": 3163,
      "hat": 3164,
      "acter": 3165,
      "withdra": 3166,
      "graduated": 3167,
      "Mon": 3168,
      "Nobody": 3169,
      "bio": 3170,
      "stayed": 3171,
      "recogn": 3172,
      "Reddit": 3173,
      "beyond": 3174,
      "26": 3175,
      "mirr": 3176,
      "changing": 3177,
      "?\"": 3178,
      "Oh": 3179,
      "sion": 3180,
      "floor": 3181,
      "langu": 3182,
      "card": 3183,
      "ene": 3184,
      "stick": 3185,
      "seme": 3186,
      "everytime": 3187,
      "ificant": 3188,
      "attractive": 3189,
      "sens": 3190,
      "interesting": 3191,
      "avail": 3192,
      "eem": 3193,
      "Suic": 3194,
      "aim": 3195,
      "fire": 3196,
      "subreddit": 3197,
      "mentioned": 3198,
      "respect": 3199,
      "und": 3200,
      "box": 3201,
      "finished": 3202,
      "prote": 3203,
      "value": 3204,
      "exhausting": 3205,
      "fantas": 3206,
      "Are": 3207,
      "hid": 3208,
      "zero": 3209,
      "nur": 3210,
      "ination": 3211,
      "ened": 3212,
      "member": 3213,
      "urge": 3214,
      "cris": 3215,
      "business": 3216,
      "financial": 3217,
      "nia": 3218,
      "antic": 3219,
      "intro": 3220,
      "posted": 3221,
      "aaaa": 3222,
      "brush": 3223,
      "debt": 3224,
      "esteem": 3225,
      "tran": 3226,
      "minim": 3227,
      "CO": 3228,
      "ics": 3229,
      "refuse": 3230,
      "bag": 3231,
      "causes": 3232,
      "ization": 3233,
      "concerned": 3234,
      "Hope": 3235,
      "anim": 3236,
      "total": 3237,
      "messed": 3238,
      "alous": 3239,
      "writ": 3240,
      "posts": 3241,
      "tempor": 3242,
      "mild": 3243,
      "psychologist": 3244,
      "dread": 3245,
      "female": 3246,
      "comput": 3247,
      "shake": 3248,
      "crit": 3249,
      "generally": 3250,
      "disappointed": 3251,
      "above": 3252,
      "AM": 3253,
      "TL": 3254,
      "desperate": 3255,
      "Dis": 3256,
      "ler": 3257,
      "refer": 3258,
      "unhappy": 3259,
      "store": 3260,
      "survi": 3261,
      "planned": 3262,
      "bills": 3263,
      "advance": 3264,
      "fill": 3265,
      "nar": 3266,
      "likes": 3267,
      "addiction": 3268,
      "kicked": 3269,
      "content": 3270,
      "connected": 3271,
      "pregn": 3272,
      "seeking": 3273,
      "isolated": 3274,
      "pis": 3275,
      "gging": 3276,
      "encour": 3277,
      "battle": 3278,
      "opportunity": 3279,
      "pd": 3280,
      "team": 3281,
      "accepted": 3282,
      "embarrass": 3283,
      "specific": 3284,
      "mirror": 3285,
      "aly": 3286,
      "eld": 3287,
      "medit": 3288,
      "calls": 3289,
      "oun": 3290,
      "fection": 3291,
      "misery": 3292,
      "manipul": 3293,
      "semester": 3294,
      "Ad": 3295,
      "tight": 3296,
      "headache": 3297,
      "ribut": 3298,
      "AND": 3299,
      "Been": 3300,
      "crap": 3301,
      "pushed": 3302,
      "rat": 3303,
      "dev": 3304,
      "offic": 3305,
      "jealous": 3306,
      "valu": 3307,
      "checked": 3308,
      "judge": 3309,
      "surgery": 3310,
      "ado": 3311,
      "five": 3312,
      "link": 3313,
      "sch": 3314,
      "prevent": 3315,
      "mbers": 3316,
      "ignored": 3317,
      "OC": 3318,
      "ining": 3319,
      "itch": 3320,
      "consu": 3321,
      "otherwise": 3322,
      "intru": 3323,
      "pretend": 3324,
      "schedule": 3325,
      "filled": 3326,
      "table": 3327,
      "matters": 3328,
      "viron": 3329,
      "Will": 3330,
      "pen": 3331,
      "ude": 3332,
      "boss": 3333,
      "photo": 3334,
      "27": 3335,
      "environ": 3336,
      "deter": 3337,
      "embarrassed": 3338,
      "access": 3339,
      "agree": 3340,
      "street": 3341,
      "triggered": 3342,
      "productive": 3343,
      "potential": 3344,
      "arms": 3345,
      "graduate": 3346,
      "education": 3347,
      "bru": 3348,
      "fati": 3349,
      "gar": 3350,
      "lim": 3351,
      "goodbye": 3352,
      "ctly": 3353,
      "hug": 3354,
      "average": 3355,
      "Stress": 3356,
      "bitch": 3357,
      "meaningless": 3358,
      "From": 3359,
      "Right": 3360,
      "apro": 3361,
      "ges": 3362,
      "white": 3363,
      "maint": 3364,
      "character": 3365,
      "maintain": 3366,
      "EVER": 3367,
      "ya": 3368,
      "sober": 3369,
      "roll": 3370,
      "cks": 3371,
      "rap": 3372,
      "plus": 3373,
      "laying": 3374,
      "CT": 3375,
      "freak": 3376,
      "computer": 3377,
      "LL": 3378,
      "Who": 3379,
      "track": 3380,
      "wonderful": 3381,
      "deeply": 3382,
      "distract": 3383,
      "nal": 3384,
      "sty": 3385,
      "wash": 3386,
      "comments": 3387,
      "letter": 3388,
      "dealt": 3389,
      "confident": 3390,
      "iest": 3391,
      "zzy": 3392,
      "dia": 3393,
      "language": 3394,
      "intrusive": 3395,
      "HE": 3396,
      "cous": 3397,
      "aming": 3398,
      "hey": 3399,
      "slightly": 3400,
      "fresh": 3401,
      "explo": 3402,
      "intention": 3403,
      "crisis": 3404,
      "ahead": 3405,
      "provide": 3406,
      "overcome": 3407,
      "ski": 3408,
      "figured": 3409,
      "employ": 3410,
      "???": 3411,
      "respond": 3412,
      "glad": 3413,
      "recover": 3414,
      "riage": 3415,
      "tool": 3416,
      "screaming": 3417,
      "mixed": 3418,
      "paranoid": 3419,
      "siblings": 3420,
      "cis": 3421,
      "ially": 3422,
      "rarely": 3423,
      "wers": 3424,
      "riday": 3425,
      "ively": 3426,
      "saving": 3427,
      "hasn": 3428,
      "background": 3429,
      "concern": 3430,
      "satis": 3431,
      "repeat": 3432,
      "Did": 3433,
      "som": 3434,
      "forgive": 3435,
      "pound": 3436,
      "lithium": 3437,
      "gged": 3438,
      "Ever": 3439,
      "reaction": 3440,
      "large": 3441,
      "following": 3442,
      "cum": 3443,
      "ises": 3444,
      "catch": 3445,
      "pack": 3446,
      "prefer": 3447,
      "Things": 3448,
      "disappointment": 3449,
      "sweet": 3450,
      "bearable": 3451,
      "28": 3452,
      "members": 3453,
      "ride": 3454,
      "romantic": 3455,
      "socially": 3456,
      "vacation": 3457,
      "cof": 3458,
      "vey": 3459,
      "foot": 3460,
      "depressing": 3461,
      "stopping": 3462,
      "sw": 3463,
      "ret": 3464,
      "mes": 3465,
      "lymp": 3466,
      "field": 3467,
      "minor": 3468,
      "000": 3469,
      "corre": 3470,
      "rin": 3471,
      "ously": 3472,
      "prior": 3473,
      "organ": 3474,
      "RT": 3475,
      "Yes": 3476,
      "fil": 3477,
      "recent": 3478,
      "deca": 3479,
      "acking": 3480,
      "While": 3481,
      "mates": 3482,
      "Anyways": 3483,
      "expensive": 3484,
      "headaches": 3485,
      "Don": 3486,
      "Get": 3487,
      "gt": 3488,
      "feet": 3489,
      "hea": 3490,
      "terms": 3491,
      "speaking": 3492,
      "available": 3493,
      "pressed": 3494,
      "held": 3495,
      "happier": 3496,
      "lump": 3497,
      "solve": 3498,
      "bottle": 3499,
      "Eng": 3500,
      "init": 3501,
      "ionally": 3502,
      "neuro": 3503,
      "quel": 3504,
      "six": 3505,
      "environment": 3506,
      "blow": 3507,
      "uary": 3508,
      "ening": 3509,
      "enjo": 3510,
      "overall": 3511,
      "million": 3512,
      "practic": 3513,
      "routine": 3514,
      "coffee": 3515,
      "pity": 3516,
      "famili": 3517,
      "Someone": 3518,
      "favorite": 3519,
      "MY": 3520,
      "Yet": 3521,
      "cup": 3522,
      "kis": 3523,
      "usion": 3524,
      "travel": 3525,
      "NOT": 3526,
      "OCD": 3527,
      "ox": 3528,
      "tist": 3529,
      "idi": 3530,
      "everywhere": 3531,
      "surround": 3532,
      "ung": 3533,
      "affect": 3534,
      "struggles": 3535,
      "compet": 3536,
      "ridic": 3537,
      "ridge": 3538,
      "ense": 3539,
      "separ": 3540,
      "Whenever": 3541,
      "closest": 3542,
      "Monday": 3543,
      "Honest": 3544,
      "Never": 3545,
      "ingly": 3546,
      "elled": 3547,
      "fulf": 3548,
      "events": 3549,
      "templ": 3550,
      "Where": 3551,
      "gut": 3552,
      "ki": 3553,
      "haps": 3554,
      "asshole": 3555,
      "passing": 3556,
      "Only": 3557,
      "Man": 3558,
      "email": 3559,
      "diet": 3560,
      "grandma": 3561,
      "bottom": 3562,
      "regularly": 3563,
      "nose": 3564,
      "lest": 3565,
      "cember": 3566,
      "turns": 3567,
      "priv": 3568,
      "seconds": 3569,
      "!!!!": 3570,
      "traumatic": 3571,
      "deeper": 3572,
      "hating": 3573,
      "legs": 3574,
      "drag": 3575,
      "interests": 3576,
      "curious": 3577,
      "significant": 3578,
      "AY": 3579,
      "sl": 3580,
      "sme": 3581,
      "wrist": 3582,
      "sequ": 3583,
      "carry": 3584,
      "brings": 3585,
      "destroyed": 3586,
      "distance": 3587,
      "particip": 3588,
      "yout": 3589,
      "shaking": 3590,
      "Christ": 3591,
      "tiny": 3592,
      "Had": 3593,
      "US": 3594,
      "tf": 3595,
      "yr": 3596,
      "anuary": 3597,
      "friendships": 3598,
      "cripp": 3599,
      "Po": 3600,
      "ignor": 3601,
      "spective": 3602,
      "develop": 3603,
      "dependent": 3604,
      "Honestly": 3605,
      "intel": 3606,
      "2020": 3607,
      ".&": 3608,
      "sore": 3609,
      "ays": 3610,
      "aster": 3611,
      "ideation": 3612,
      "understood": 3613,
      "therapists": 3614,
      "dinner": 3615,
      "nel": 3616,
      "rage": 3617,
      "¦": 3618,
      "trash": 3619,
      "understands": 3620,
      "strang": 3621,
      "decisions": 3622,
      "rejected": 3623,
      "racing": 3624,
      "Ok": 3625,
      "sci": 3626,
      "zo": 3627,
      "indi": 3628,
      "rot": 3629,
      "bleed": 3630,
      "showed": 3631,
      "walked": 3632,
      "counse": 3633,
      "connect": 3634,
      "hypomanic": 3635,
      "financially": 3636,
      "?!": 3637,
      "atta": 3638,
      "mechan": 3639,
      "realised": 3640,
      "leaves": 3641,
      "marriage": 3642,
      "suggestions": 3643,
      "desperately": 3644,
      "opinion": 3645,
      "OD": 3646,
      "bh": 3647,
      "bby": 3648,
      "hd": 3649,
      "tasks": 3650,
      "session": 3651,
      "based": 3652,
      "pts": 3653,
      "acy": 3654,
      "aches": 3655,
      "relap": 3656,
      "stantly": 3657,
      "answers": 3658,
      "resour": 3659,
      "switch": 3660,
      "roof": 3661,
      "pless": 3662,
      "higher": 3663,
      "severely": 3664,
      "THING": 3665,
      "style": 3666,
      "enjoying": 3667,
      "BE": 3668,
      "Per": 3669,
      "cast": 3670,
      "universe": 3671,
      "videos": 3672,
      "nife": 3673,
      "snap": 3674,
      "hatred": 3675,
      "60": 3676,
      "etite": 3677,
      "discuss": 3678,
      "planet": 3679,
      "steps": 3680,
      "reply": 3681,
      "fairly": 3682,
      "muscle": 3683,
      "idiot": 3684,
      "BP": 3685,
      "ffe": 3686,
      "hall": 3687,
      "assa": 3688,
      "suppose": 3689,
      "ential": 3690,
      "create": 3691,
      "pursu": 3692,
      "Here": 3693,
      "ai": 3694,
      "bre": 3695,
      "knife": 3696,
      "mut": 3697,
      "shouldn": 3698,
      "attempts": 3699,
      "topic": 3700,
      "searching": 3701,
      "actively": 3702,
      "ather": 3703,
      "lines": 3704,
      "infection": 3705,
      "seas": 3706,
      "LO": 3707,
      "Let": 3708,
      "recor": 3709,
      "web": 3710,
      "dizzy": 3711,
      "Before": 3712,
      "nature": 3713,
      "employed": 3714,
      "____": 3715,
      "various": 3716,
      "phase": 3717,
      "Med": 3718,
      "overdose": 3719,
      "typ": 3720,
      "appetite": 3721,
      "functioning": 3722,
      "cruel": 3723,
      "awhile": 3724,
      "llar": 3725,
      "contribut": 3726,
      "claim": 3727,
      "sible": 3728,
      "........": 3729,
      "books": 3730,
      "bling": 3731,
      "tv": 3732,
      "lex": 3733,
      "dom": 3734,
      "disability": 3735,
      "painless": 3736,
      "realise": 3737,
      "fired": 3738,
      "bigger": 3739,
      "entirely": 3740,
      "occur": 3741,
      "ints": 3742,
      "ify": 3743,
      "typing": 3744,
      "shows": 3745,
      "jects": 3746,
      "sexually": 3747,
      "mainly": 3748,
      "90": 3749,
      "Was": 3750,
      "dd": 3751,
      "rup": 3752,
      "deb": 3753,
      "scen": 3754,
      "context": 3755,
      "becomes": 3756,
      "Need": 3757,
      "\\*": 3758,
      "aching": 3759,
      "aspe": 3760,
      "caught": 3761,
      "compared": 3762,
      "project": 3763,
      "saved": 3764,
      "dram": 3765,
      "venting": 3766,
      "circum": 3767,
      "Zoloft": 3768,
      "\\-": 3769,
      "vil": 3770,
      "third": 3771,
      "upon": 3772,
      "swear": 3773,
      "written": 3774,
      "insul": 3775,
      "destru": 3776,
      "cop": 3777,
      "ilt": 3778,
      "ruining": 3779,
      "sessions": 3780,
      "temporary": 3781,
      "itive": 3782,
      "secre": 3783,
      "cook": 3784,
      "unbearable": 3785,
      "contempl": 3786,
      ".....": 3787,
      "overthinking": 3788,
      "impul": 3789,
      "blocked": 3790,
      "ugust": 3791,
      "laughing": 3792,
      "Dr": 3793,
      "bility": 3794,
      "odd": 3795,
      "dio": 3796,
      "watched": 3797,
      "creep": 3798,
      "stronger": 3799,
      ".**": 3800,
      "About": 3801,
      "thy": 3802,
      "ali": 3803,
      "dem": 3804,
      "sake": 3805,
      "closed": 3806,
      "medicated": 3807,
      "New": 3808,
      "natural": 3809,
      "Lit": 3810,
      "ario": 3811,
      "canc": 3812,
      "endless": 3813,
      "cling": 3814,
      "ctions": 3815,
      "nausea": 3816,
      "massive": 3817,
      "somnia": 3818,
      "Ju": 3819,
      "SI": 3820,
      "Would": 3821,
      "adhd": 3822,
      "redu": 3823,
      "Soy": 3824,
      "pretending": 3825,
      "wallow": 3826,
      "succeed": 3827,
      "window": 3828,
      "WH": 3829,
      "fying": 3830,
      "gent": 3831,
      "ues": 3832,
      "butrin": 3833,
      "neigh": 3834,
      "perspective": 3835,
      "talent": 3836,
      "hardly": 3837,
      "pi": 3838,
      "unfortunately": 3839,
      "service": 3840,
      "burst": 3841,
      "periods": 3842,
      "throwing": 3843,
      "Suicide": 3844,
      "CB": 3845,
      "Her": 3846,
      "lad": 3847,
      "mm": 3848,
      "mir": 3849,
      "alright": 3850,
      "vest": 3851,
      "associ": 3852,
      "west": 3853,
      "stressing": 3854,
      "signs": 3855,
      "insecure": 3856,
      "Bo": 3857,
      "See": 3858,
      "inally": 3859,
      "def": 3860,
      "interaction": 3861,
      "minal": 3862,
      "prescription": 3863,
      "circle": 3864,
      "permanent": 3865,
      "Bas": 3866,
      "Still": 3867,
      "eu": 3868,
      "depressant": 3869,
      "messages": 3870,
      "Once": 3871,
      "levels": 3872,
      "randomly": 3873,
      "FUCKING": 3874,
      "brief": 3875,
      "narcis": 3876,
      "During": 3877,
      "Mar": 3878,
      "bank": 3879,
      "em": 3880,
      "hill": 3881,
      "acts": 3882,
      "enter": 3883,
      "entially": 3884,
      "affected": 3885,
      "cough": 3886,
      "tw": 3887,
      "uu": 3888,
      "van": 3889,
      "tice": 3890,
      "adul": 3891,
      "studies": 3892,
      "horri": 3893,
      "humans": 3894,
      "Having": 3895,
      "sharing": 3896,
      "English": 3897,
      "dys": 3898,
      "kk": 3899,
      "ties": 3900,
      "quot": 3901,
      "oooo": 3902,
      "YOUR": 3903,
      "habits": 3904,
      "fatigue": 3905,
      "His": 3906,
      "Your": 3907,
      "habit": 3908,
      "bel": 3909,
      "wishing": 3910,
      "Everyday": 3911,
      "holiday": 3912,
      "ker": 3913,
      "chose": 3914,
      "HAT": 3915,
      "recommend": 3916,
      "coworkers": 3917,
      "ridicul": 3918,
      "VE": 3919,
      "ii": 3920,
      "scares": 3921,
      "hopes": 3922,
      "aller": 3923,
      "worries": 3924,
      "talks": 3925,
      "addicted": 3926,
      "picked": 3927,
      "grown": 3928,
      "Tired": 3929,
      "--------": 3930,
      "rab": 3931,
      "artic": 3932,
      "mindset": 3933,
      "specif": 3934,
      "involved": 3935,
      "devast": 3936,
      "bright": 3937,
      "yy": 3938,
      "ups": 3939,
      "concent": 3940,
      "burning": 3941,
      "hitting": 3942,
      "strangers": 3943,
      "Lately": 3944,
      "Ther": 3945,
      "gle": 3946,
      "stances": 3947,
      "comb": 3948,
      "raised": 3949,
      "aff": 3950,
      "vies": 3951,
      "conversations": 3952,
      "frustrating": 3953,
      "BPD": 3954,
      "Could": 3955,
      "mble": 3956,
      "inju": 3957,
      "ished": 3958,
      "assault": 3959,
      "Long": 3960,
      "Lamictal": 3961,
      "blu": 3962,
      "tast": 3963,
      "zed": 3964,
      "ache": 3965,
      "tered": 3966,
      "confu": 3967,
      "ousand": 3968,
      "inevit": 3969,
      "manager": 3970,
      "personally": 3971,
      "committed": 3972,
      "victim": 3973,
      "AR": 3974,
      "DO": 3975,
      "Qu": 3976,
      "base": 3977,
      "rad": 3978,
      "tear": 3979,
      "shift": 3980,
      "contr": 3981,
      "standing": 3982,
      "checking": 3983,
      "nesses": 3984,
      "withdrawal": 3985,
      "pregnant": 3986,
      "cred": 3987,
      "ient": 3988,
      "arant": 3989,
      "defe": 3990,
      "movies": 3991,
      "impact": 3992,
      "crippling": 3993,
      "dramatic": 3994,
      "Basically": 3995,
      "TI": 3996,
      "gay": 3997,
      "squ": 3998,
      "remain": 3999,
      "tember": 4000,
      "reaching": 4001,
      "bringing": 4002,
      "autism": 4003,
      "necessary": 4004,
      "sensation": 4005,
      "scenario": 4006,
      "AS": 4007,
      "January": 4008,
      "itude": 4009,
      "evening": 4010,
      "fog": 4011,
      "realizing": 4012,
      "Looking": 4013,
      "private": 4014,
      "flat": 4015,
      "sour": 4016,
      "dollar": 4017,
      "shy": 4018,
      "particular": 4019,
      "received": 4020,
      "rare": 4021,
      "tbh": 4022,
      "thousand": 4023,
      "ons": 4024,
      "dos": 4025,
      "chall": 4026,
      "locked": 4027,
      "torture": 4028,
      "survey": 4029,
      "responsible": 4030,
      "auto": 4031,
      "activities": 4032,
      "dangerous": 4033,
      "swings": 4034,
      "decade": 4035,
      "gency": 4036,
      "lor": 4037,
      "warm": 4038,
      "itis": 4039,
      "forgotten": 4040,
      "rich": 4041,
      "assign": 4042,
      "increas": 4043,
      "effective": 4044,
      "threw": 4045,
      "nightmares": 4046,
      "google": 4047,
      "emer": 4048,
      "ky": 4049,
      "resent": 4050,
      "vert": 4051,
      "polit": 4052,
      "agre": 4053,
      "apply": 4054,
      "2021": 4055,
      "!!!": 4056,
      "exams": 4057,
      "majority": 4058,
      "gained": 4059,
      "screen": 4060,
      "bridge": 4061,
      "race": 4062,
      "consequ": 4063,
      "rude": 4064,
      "lasted": 4065,
      "parts": 4066,
      "apologize": 4067,
      "surprised": 4068,
      "hungry": 4069,
      "fle": 4070,
      "chon": 4071,
      "ppl": 4072,
      "cele": 4073,
      "didnt": 4074,
      "cheated": 4075,
      "despair": 4076,
      "cleaning": 4077,
      "practice": 4078,
      "Gu": 4079,
      "": 4080,
      "insomnia": 4081,
      "amo": 4082,
      "eter": 4083,
      "grab": 4084,
      "block": 4085,
      "hhhh": 4086,
      "Lat": 4087,
      "dic": 4088,
      "net": 4089,
      "mote": 4090,
      "ading": 4091,
      "conven": 4092,
      "apy": 4093,
      "showing": 4094,
      "cousin": 4095,
      "pure": 4096,
      "tiness": 4097,
      "aline": 4098,
      "vember": 4099,
      "anytime": 4100,
      "bia": 4101,
      "pulled": 4102,
      "teenager": 4103,
      "Yesterday": 4104,
      "awe": 4105,
      "stic": 4106,
      "perded": 4107,
      "highschool": 4108,
      "breaks": 4109,
      "ONE": 4110,
      "perdedor": 4111,
      "ror": 4112,
      "stage": 4113,
      "rope": 4114,
      "hardest": 4115,
      "izo": 4116,
      "opened": 4117,
      "triggers": 4118,
      "annoyed": 4119,
      "flash": 4120,
      "celebr": 4121,
      "Des": 4122,
      "LIV": 4123,
      "cute": 4124,
      "gin": 4125,
      "lap": 4126,
      "income": 4127,
      "local": 4128,
      "core": 4129,
      "Health": 4130,
      "fears": 4131,
      "promise": 4132,
      "perdedorSoy": 4133,
      "task": 4134,
      "below": 4135,
      "dele": 4136,
      "irl": 4137,
      "worthy": 4138,
      "custo": 4139,
      "spoke": 4140,
      "legit": 4141,
      "twitter": 4142,
      "frequently": 4143,
      "hits": 4144,
      "vom": 4145,
      "zon": 4146,
      "invest": 4147,
      "roke": 4148,
      "ague": 4149,
      "shoulder": 4150,
      "basis": 4151,
      "created": 4152,
      "December": 4153,
      "relatively": 4154,
      "encourage": 4155,
      "individ": 4156,
      "29": 4157,
      "Back": 4158,
      "Got": 4159,
      "LI": 4160,
      "wis": 4161,
      "stair": 4162,
      "acade": 4163,
      "pper": 4164,
      "harming": 4165,
      "alcoholic": 4166,
      "continued": 4167,
      "AAAAAAAAAAAAAAAAAAAAAAAAAAAAAAAAAAAAAAAAAAAAAAAAAAAAAAAAAAAAAAAAAAAAAAAAAAAAAAAAAAAAAAAAAAAAAAAAAAAAAAAAAAAAAAAAAAAAAAAAAAAAAAAAAAAAAAAAAAAAAAAAAAAAAAAAAAAAAAAAAAAAAAAAAAAAAAAAAAAAAAAAAAAAAAAAAAAAAAAAAAAAAAAAAAAAAAAAAAAAAAAAAAAAAAAAAAAAAAAAAAAAAAAAAAAAAAAA": 4168,
      "pattern": 4169,
      "GP": 4170,
      "hr": 4171,
      "swo": 4172,
      "sses": 4173,
      "irm": 4174,
      "built": 4175,
      "oppo": 4176,
      "details": 4177,
      "drowning": 4178,
      "narcissist": 4179,
      "dir": 4180,
      "pin": 4181,
      "sell": 4182,
      "clue": 4183,
      "strain": 4184,
      "migr": 4185,
      "followed": 4186,
      "hypomania": 4187,
      "ridiculous": 4188,
      "Other": 4189,
      "aur": 4190,
      "athetic": 4191,
      "reck": 4192,
      "arri": 4193,
      "asp": 4194,
      "ception": 4195,
      "opening": 4196,
      "pleasure": 4197,
      "chondri": 4198,
      "dry": 4199,
      "ech": 4200,
      "vul": 4201,
      "gover": 4202,
      "ified": 4203,
      "20s": 4204,
      "interact": 4205,
      "greatly": 4206,
      "Start": 4207,
      "balance": 4208,
      "resources": 4209,
      "EE": 4210,
      "spl": 4211,
      "aling": 4212,
      "unemployed": 4213,
      "drank": 4214,
      "emptiness": 4215,
      "hospitalized": 4216,
      "disorders": 4217,
      "darkness": 4218,
      "particularly": 4219,
      "80": 4220,
      "scare": 4221,
      "stat": 4222,
      "loc": 4223,
      "ental": 4224,
      "ender": 4225,
      "illing": 4226,
      "join": 4227,
      "enjoyed": 4228,
      "ocd": 4229,
      "bbing": 4230,
      "drained": 4231,
      "increase": 4232,
      "divorce": 4233,
      "argument": 4234,
      "mary": 4235,
      "swallow": 4236,
      "ery": 4237,
      "eral": 4238,
      "thats": 4239,
      "math": 4240,
      "cep": 4241,
      "poison": 4242,
      "illnesses": 4243,
      "raped": 4244,
      "essentially": 4245,
      "psychosis": 4246,
      "minimum": 4247,
      "individual": 4248,
      "Our": 4249,
      "Pl": 4250,
      "aid": 4251,
      "bra": 4252,
      "ctor": 4253,
      "specially": 4254,
      "functional": 4255,
      "expectations": 4256,
      "jumping": 4257,
      "tumor": 4258,
      "embarrassing": 4259,
      "lymph": 4260,
      "July": 4261,
      "specifically": 4262,
      "Friday": 4263,
      "MS": 4264,
      "cul": 4265,
      "lab": 4266,
      "uses": 4267,
      "astic": 4268,
      "helpless": 4269,
      "raise": 4270,
      "sport": 4271,
      "afterwards": 4272,
      "sero": 4273,
      "belief": 4274,
      "subject": 4275,
      "insight": 4276,
      "groups": 4277,
      "invited": 4278,
      "sweat": 4279,
      "ptsd": 4280,
      "App": 4281,
      "By": 4282,
      "nut": 4283,
      "uda": 4284,
      "sees": 4285,
      "useful": 4286,
      "english": 4287,
      "pissed": 4288,
      "lamictal": 4289,
      "sin": 4290,
      "zen": 4291,
      "ana": 4292,
      "tober": 4293,
      "weigh": 4294,
      "dissoci": 4295,
      "possibility": 4296,
      "played": 4297,
      "bothered": 4298,
      "texted": 4299,
      "destroy": 4300,
      "Sep": 4301,
      "Yeah": 4302,
      "cross": 4303,
      "rd": 4304,
      "react": 4305,
      "ppy": 4306,
      "url": 4307,
      "cies": 4308,
      "silence": 4309,
      "admitted": 4310,
      "occasionally": 4311,
      "recognize": 4312,
      "credit": 4313,
      "thus": 4314,
      "nother": 4315,
      "beating": 4316,
      "soli": 4317,
      "weet": 4318,
      "monster": 4319,
      "ultim": 4320,
      "board": 4321,
      "complic": 4322,
      "staring": 4323,
      "communicate": 4324,
      "abandoned": 4325,
      "welcome": 4326,
      "hiding": 4327,
      "secret": 4328,
      "bound": 4329,
      "bage": 4330,
      "vy": 4331,
      "vable": 4332,
      "toler": 4333,
      "roo": 4334,
      "hobby": 4335,
      "scrat": 4336,
      "prison": 4337,
      "stranger": 4338,
      "freed": 4339,
      "isolation": 4340,
      "responsibility": 4341,
      "nurse": 4342,
      "emergency": 4343,
      "SH": 4344,
      "elect": 4345,
      "swi": 4346,
      "sight": 4347,
      "iron": 4348,
      "tics": 4349,
      "incident": 4350,
      "appointments": 4351,
      "draw": 4352,
      "heavily": 4353,
      "direction": 4354,
      "journey": 4355,
      "smell": 4356,
      "lunch": 4357,
      "uncle": 4358,
      "perhaps": 4359,
      "shop": 4360,
      "blind": 4361,
      "expecting": 4362,
      "directly": 4363,
      "wedding": 4364,
      "increased": 4365,
      "critic": 4366,
      "opposite": 4367,
      "ILL": 4368,
      "zac": 4369,
      "ale": 4370,
      "dogs": 4371,
      "llen": 4372,
      "loose": 4373,
      "lowest": 4374,
      "urs": 4375,
      "version": 4376,
      "Really": 4377,
      "hotline": 4378,
      "Going": 4379,
      "divorced": 4380,
      "palpit": 4381,
      "religious": 4382,
      "awesome": 4383,
      "Another": 4384,
      "bon": 4385,
      "fan": 4386,
      "spre": 4387,
      "stim": 4388,
      "noon": 4389,
      "neither": 4390,
      "buying": 4391,
      "thrown": 4392,
      "naturally": 4393,
      "meditation": 4394,
      "OF": 4395,
      "Oc": 4396,
      "wind": 4397,
      "ani": 4398,
      "itary": 4399,
      "among": 4400,
      "weather": 4401,
      "perfor": 4402,
      "apps": 4403,
      "believed": 4404,
      "pair": 4405,
      "mission": 4406,
      "recovery": 4407,
      "lockdown": 4408,
      "youtube": 4409,
      "mutual": 4410,
      "Ser": 4411,
      "TW": 4412,
      "bow": 4413,
      "lbs": 4414,
      "remote": 4415,
      "assist": 4416,
      "finger": 4417,
      "season": 4418,
      "Want": 4419,
      "flow": 4420,
      "tun": 4421,
      "intim": 4422,
      "distant": 4423,
      "tension": 4424,
      "dump": 4425,
      "Something": 4426,
      "added": 4427,
      "btw": 4428,
      "perfectly": 4429,
      "jokes": 4430,
      "garbage": 4431,
      "EVERY": 4432,
      "Cur": 4433,
      "TV": 4434,
      "bill": 4435,
      "border": 4436,
      "wk": 4437,
      "instantly": 4438,
      "toll": 4439,
      "bless": 4440,
      "ALLY": 4441,
      "More": 4442,
      "HH": 4443,
      "Trying": 4444,
      "kno": 4445,
      "orts": 4446,
      "shel": 4447,
      "bump": 4448,
      "Instead": 4449,
      "breakup": 4450,
      "tested": 4451,
      "reminded": 4452,
      "pictures": 4453,
      "regarding": 4454,
      "assume": 4455,
      "necessarily": 4456,
      "focused": 4457,
      "yelling": 4458,
      "fly": 4459,
      "kms": 4460,
      "ote": 4461,
      "lift": 4462,
      "aside": 4463,
      "abdo": 4464,
      "concl": 4465,
      "Wellbutrin": 4466,
      "report": 4467,
      "silly": 4468,
      "Le": 4469,
      "anax": 4470,
      "removed": 4471,
      "meal": 4472,
      "coll": 4473,
      "faith": 4474,
      "shared": 4475,
      "differently": 4476,
      "mark": 4477,
      "explained": 4478,
      "avoiding": 4479,
      "hypochondri": 4480,
      "promised": 4481,
      "rejection": 4482,
      "schizo": 4483,
      "pounds": 4484,
      "blue": 4485,
      "LIVING": 4486,
      "II": 4487,
      "OP": 4488,
      "sessed": 4489,
      "rome": 4490,
      "shes": 4491,
      "Thought": 4492,
      "wood": 4493,
      "neighbor": 4494,
      "freedom": 4495,
      "August": 4496,
      "VID": 4497,
      "cult": 4498,
      "ik": 4499,
      "zap": 4500,
      "stroke": 4501,
      "moder": 4502,
      "pos": 4503,
      "2018": 4504,
      "counsel": 4505,
      "deserves": 4506,
      "grandmother": 4507,
      "grocer": 4508,
      "scars": 4509,
      "Again": 4510,
      "Friend": 4511,
      "ral": 4512,
      "inal": 4513,
      "altern": 4514,
      "fest": 4515,
      "reassurance": 4516,
      "dull": 4517,
      "opti": 4518,
      "bedroom": 4519,
      "suggested": 4520,
      "opportunities": 4521,
      "circumstances": 4522,
      "September": 4523,
      "Ive": 4524,
      "double": 4525,
      "ima": 4526,
      "lma": 4527,
      "thread": 4528,
      "comfor": 4529,
      "betray": 4530,
      "2019": 4531,
      "bud": 4532,
      "senior": 4533,
      "setting": 4534,
      "appeared": 4535,
      "spirit": 4536,
      "affects": 4537,
      "breast": 4538,
      "vulner": 4539,
      "Goo": 4540,
      "vacc": 4541,
      "release": 4542,
      "ley": 4543,
      "addit": 4544,
      "unhealthy": 4545,
      "whom": 4546,
      "bum": 4547,
      "curity": 4548,
      "trave": 4549,
      "sharp": 4550,
      "stairs": 4551,
      "Nor": 4552,
      "UT": 4553,
      "fal": 4554,
      "ners": 4555,
      "pas": 4556,
      "ured": 4557,
      "orig": 4558,
      "ourselves": 4559,
      "applied": 4560,
      "November": 4561,
      "warning": 4562,
      "bruary": 4563,
      "Liter": 4564,
      "LY": 4565,
      "inner": 4566,
      "ature": 4567,
      "aggress": 4568,
      "homework": 4569,
      "Although": 4570,
      "antidepressant": 4571,
      "cording": 4572,
      "facing": 4573,
      "nauseous": 4574,
      "religion": 4575,
      "rapid": 4576,
      "intellig": 4577,
      "agreed": 4578,
      ".”": 4579,
      "Day": 4580,
      "Sun": 4581,
      "nap": 4582,
      "scan": 4583,
      "prove": 4584,
      "via": 4585,
      "dreaming": 4586,
      "fixed": 4587,
      "leads": 4588,
      "WALL": 4589,
      "osing": 4590,
      "forms": 4591,
      "aded": 4592,
      "ssy": 4593,
      "popul": 4594,
      "lifestyle": 4595,
      "rules": 4596,
      "Love": 4597,
      "delus": 4598,
      "training": 4599,
      "transfer": 4600,
      "paranoia": 4601,
      "Current": 4602,
      "Uni": 4603,
      "flight": 4604,
      "mask": 4605,
      "thor": 4606,
      "info": 4607,
      "chances": 4608,
      "couch": 4609,
      "matic": 4610,
      "shape": 4611,
      "sky": 4612,
      "meaningful": 4613,
      "certainly": 4614,
      "legal": 4615,
      "accidentally": 4616,
      "journal": 4617,
      "texts": 4618,
      "Che": 4619,
      "UK": 4620,
      "fla": 4621,
      "nic": 4622,
      "sending": 4623,
      "loop": 4624,
      "pop": 4625,
      "stops": 4626,
      "regardless": 4627,
      "COVID": 4628,
      "officially": 4629,
      "science": 4630,
      "halluc": 4631,
      "Literally": 4632,
      "Com": 4633,
      "Tho": 4634,
      "Take": 4635,
      "va": 4636,
      "rely": 4637,
      "resist": 4638,
      "aint": 4639,
      "ndrome": 4640,
      "avpd": 4641,
      "ban": 4642,
      "cro": 4643,
      "limit": 4644,
      "ambit": 4645,
      "chick": 4646,
      "dude": 4647,
      "tries": 4648,
      "empathy": 4649,
      "brothers": 4650,
      "pieces": 4651,
      "affection": 4652,
      "grief": 4653,
      "99": 4654,
      "dated": 4655,
      "begging": 4656,
      "tery": 4657,
      "Always": 4658,
      "corner": 4659,
      "quality": 4660,
      "consistently": 4661,
      "benefit": 4662,
      "Apri": 4663,
      "evil": 4664,
      "stability": 4665,
      "mode": 4666,
      "urday": 4667,
      "peoples": 4668,
      "hello": 4669,
      "mature": 4670,
      "***": 4671,
      "ativity": 4672,
      "numbness": 4673,
      "appearance": 4674,
      "affecting": 4675,
      "Covid": 4676,
      "aspect": 4677,
      "source": 4678,
      "April": 4679,
      "?)": 4680,
      "Fast": 4681,
      "az": 4682,
      "aunt": 4683,
      "verge": 4684,
      "enty": 4685,
      "agram": 4686,
      "spring": 4687,
      "nail": 4688,
      "paring": 4689,
      "restaur": 4690,
      "sooner": 4691,
      "blur": 4692,
      "teachers": 4693,
      "rambling": 4694,
      "Unfortunately": 4695,
      "wearing": 4696,
      "potentially": 4697,
      "responsibilities": 4698,
      "texting": 4699,
      "swollen": 4700,
      "image": 4701,
      "NE": 4702,
      "Wish": 4703,
      "camp": 4704,
      "ka": 4705,
      "soever": 4706,
      "demon": 4707,
      "tiring": 4708,
      "role": 4709,
      "ents": 4710,
      "ilit": 4711,
      "abled": 4712,
      "offered": 4713,
      "discovered": 4714,
      "suffoc": 4715,
      "pussy": 4716,
      "voices": 4717,
      "difficul": 4718,
      "countless": 4719,
      "March": 4720,
      "Fu": 4721,
      "fed": 4722,
      "points": 4723,
      "whatsoever": 4724,
      "choices": 4725,
      "attend": 4726,
      "existed": 4727,
      "crast": 4728,
      "activity": 4729,
      "ignoring": 4730,
      "demand": 4731,
      "consequences": 4732,
      "palpitations": 4733,
      ",,": 4734,
      "ame": 4735,
      "decl": 4736,
      "standard": 4737,
      "YouT": 4738,
      "00mg": 4739,
      "blah": 4740,
      "bothering": 4741,
      "military": 4742,
      "frequent": 4743,
      "attached": 4744,
      "lexapro": 4745,
      "Ph": 4746,
      "lean": 4747,
      "amer": 4748,
      "forcing": 4749,
      "reamed": 4750,
      "highly": 4751,
      "panicking": 4752,
      "peaceful": 4753,
      "touched": 4754,
      "conditions": 4755,
      "consistent": 4756,
      "itchen": 4757,
      "correct": 4758,
      "31": 4759,
      "CE": 4760,
      "Ob": 4761,
      "batt": 4762,
      "kitchen": 4763,
      "rational": 4764,
      "soft": 4765,
      "request": 4766,
      "prepared": 4767,
      "earn": 4768,
      "stor": 4769,
      "cig": 4770,
      "shoulders": 4771,
      "funeral": 4772,
      "cardio": 4773,
      "ANT": 4774,
      "????": 4775,
      "passionate": 4776,
      "limited": 4777,
      "govern": 4778,
      "sab": 4779,
      "winter": 4780,
      "stal": 4781,
      "stare": 4782,
      "stance": 4783,
      "amine": 4784,
      "max": 4785,
      "plenty": 4786,
      "needing": 4787,
      "apped": 4788,
      "chem": 4789,
      "crack": 4790,
      "psychiatric": 4791,
      "leading": 4792,
      "connections": 4793,
      "Especially": 4794,
      "Fo": 4795,
      "FOR": 4796,
      "Finally": 4797,
      "lled": 4798,
      "page": 4799,
      "pite": 4800,
      "deta": 4801,
      "hesit": 4802,
      "worsen": 4803,
      "panick": 4804,
      "spoken": 4805,
      "NOW": 4806,
      "Time": 4807,
      "animals": 4808,
      "taste": 4809,
      "YouTube": 4810,
      "Lex": 4811,
      "lly": 4812,
      "yelled": 4813,
      "atleast": 4814,
      "according": 4815,
      "nee": 4816,
      "prov": 4817,
      "phy": 4818,
      "counter": 4819,
      "moods": 4820,
      "irrational": 4821,
      "typical": 4822,
      "delete": 4823,
      "solid": 4824,
      "bone": 4825,
      "dred": 4826,
      "gic": 4827,
      "mur": 4828,
      "tweet": 4829,
      "identi": 4830,
      "procrast": 4831,
      "advant": 4832,
      "bullying": 4833,
      "healing": 4834,
      "surrounded": 4835,
      "Therapy": 4836,
      "cepting": 4837,
      "lmao": 4838,
      "comforting": 4839,
      "Two": 4840,
      "ham": 4841,
      "cogn": 4842,
      "overdo": 4843,
      "discomfort": 4844,
      "hundred": 4845,
      "disgusted": 4846,
      "screwed": 4847,
      "techni": 4848,
      "benefits": 4849,
      "savings": 4850,
      "split": 4851,
      "Bu": 4852,
      "Face": 4853,
      "GH": 4854,
      "dates": 4855,
      "ired": 4856,
      "nast": 4857,
      "oper": 4858,
      "ration": 4859,
      "ina": 4860,
      "soo": 4861,
      "sually": 4862,
      "household": 4863,
      "autistic": 4864,
      "noticing": 4865,
      "safety": 4866,
      "management": 4867,
      "continuing": 4868,
      "violent": 4869,
      "Disorder": 4870,
      "familiar": 4871,
      "Despite": 4872,
      "hallucin": 4873,
      "cigare": 4874,
      "MA": 4875,
      "OO": 4876,
      "Usually": 4877,
      "wound": 4878,
      "notes": 4879,
      "verted": 4880,
      "height": 4881,
      "Thinking": 4882,
      "2017": 4883,
      "speed": 4884,
      "picking": 4885,
      "addict": 4886,
      "destructive": 4887,
      "stimul": 4888,
      "Edit": 4889,
      "None": 4890,
      "cell": 4891,
      "mia": 4892,
      "nit": 4893,
      "fever": 4894,
      "guid": 4895,
      "leted": 4896,
      "drama": 4897,
      "park": 4898,
      "market": 4899,
      "shoot": 4900,
      "students": 4901,
      "deli": 4902,
      "stabili": 4903,
      "ursday": 4904,
      "vulnerable": 4905,
      "false": 4906,
      "Sure": 4907,
      "gift": 4908,
      "jaw": 4909,
      "roid": 4910,
      "adjust": 4911,
      "unstable": 4912,
      "elling": 4913,
      "disabled": 4914,
      "sleepy": 4915,
      "serving": 4916,
      "THIS": 4917,
      "freaked": 4918,
      "engine": 4919,
      "binge": 4920,
      "contemplating": 4921,
      "inevitable": 4922,
      "Those": 4923,
      "bid": 4924,
      "fish": 4925,
      "anced": 4926,
      "acid": 4927,
      "ada": 4928,
      "projects": 4929,
      "wave": 4930,
      "faking": 4931,
      "downs": 4932,
      "Everytime": 4933,
      "craw": 4934,
      "blank": 4935,
      "distur": 4936,
      "opinions": 4937,
      "punish": 4938,
      "methods": 4939,
      "WHY": 4940,
      "Part": 4941,
      "Psy": 4942,
      "wow": 4943,
      "inpatient": 4944,
      "excess": 4945,
      "applic": 4946,
      "cheating": 4947,
      "sisters": 4948,
      "shoo": 4949,
      "drove": 4950,
      "googling": 4951,
      "Christmas": 4952,
      "Okay": 4953,
      "record": 4954,
      "ultimately": 4955,
      "Lexapro": 4956,
      "3rd": 4957,
      "gross": 4958,
      "shout": 4959,
      "pot": 4960,
      "friendly": 4961,
      "fool": 4962,
      "workout": 4963,
      "mater": 4964,
      "bitter": 4965,
      "primary": 4966,
      "gene": 4967,
      "isolate": 4968,
      "vices": 4969,
      "threatened": 4970,
      "recommended": 4971,
      "lady": 4972,
      "migrain": 4973,
      "45": 4974,
      "ES": 4975,
      "Make": 4976,
      "ja": 4977,
      "deleted": 4978,
      "adays": 4979,
      "caffe": 4980,
      "unfair": 4981,
      "hadn": 4982,
      "fav": 4983,
      "jective": 4984,
      "meric": 4985,
      "visible": 4986,
      "150": 4987,
      "virgin": 4988,
      "validation": 4989,
      "muscles": 4990,
      "communication": 4991,
      "animal": 4992,
      "bleeding": 4993,
      "concentrate": 4994,
      "October": 4995,
      "tunnel": 4996,
      "conclusion": 4997,
      "2nd": 4998,
      "Se": 4999,
      "bare": 5000,
      "tl": 5001,
      "tar": 5002,
      "cher": 5003,
      "mast": 5004,
      "oked": 5005,
      "center": 5006,
      "lux": 5007,
      "court": 5008,
      "dropping": 5009,
      "terrifying": 5010,
      "drinks": 5011,
      "refused": 5012,
      "slightest": 5013,
      "clinic": 5014,
      "academic": 5015,
      "Sunday": 5016,
      "government": 5017,
      "caffeine": 5018,
      "35": 5019,
      "Americ": 5020,
      "Eid": 5021,
      "gender": 5022,
      "mous": 5023,
      "zone": 5024,
      "liver": 5025,
      "sole": 5026,
      "accepting": 5027,
      "expo": 5028,
      "persist": 5029,
      "taught": 5030,
      "fol": 5031,
      "attitude": 5032,
      "roommate": 5033,
      "controlling": 5034,
      "eaten": 5035,
      "burnt": 5036,
      "weren": 5037,
      "Almost": 5038,
      "Death": 5039,
      "cats": 5040,
      "improved": 5041,
      "profession": 5042,
      "approach": 5043,
      "Probably": 5044,
      "ghosted": 5045,
      "deterior": 5046,
      "DD": 5047,
      "Happ": 5048,
      "Sel": 5049,
      "Sero": 5050,
      "fought": 5051,
      "rt": 5052,
      "wage": 5053,
      "remove": 5054,
      "reacting": 5055,
      "noise": 5056,
      "acle": 5057,
      "afternoon": 5058,
      "grat": 5059,
      "phren": 5060,
      "blown": 5061,
      "obsessed": 5062,
      "mili": 5063,
      "license": 5064,
      "occup": 5065,
      "laughed": 5066,
      "internal": 5067,
      "skinny": 5068,
      "silent": 5069,
      "utterly": 5070,
      "protect": 5071,
      "Getting": 5072,
      "mechanism": 5073,
      "customer": 5074,
      "collap": 5075,
      "counselor": 5076,
      "chemical": 5077,
      "advantage": 5078,
      "GE": 5079,
      "Sat": 5080,
      "School": 5081,
      "fting": 5082,
      "els": 5083,
      "sports": 5084,
      "chore": 5085,
      "doesnt": 5086,
      "quitting": 5087,
      "developing": 5088,
      "teenage": 5089,
      "porn": 5090,
      "participate": 5091,
      "pursue": 5092,
      "dirty": 5093,
      "Currently": 5094,
      "cket": 5095,
      "downhill": 5096,
      "counts": 5097,
      "wished": 5098,
      "clock": 5099,
      "frustration": 5100,
      "placed": 5101,
      "repeated": 5102,
      "Event": 5103,
      "GO": 5104,
      "Mus": 5105,
      "PC": 5106,
      "num": 5107,
      "independent": 5108,
      "isms": 5109,
      "tip": 5110,
      "explan": 5111,
      "indu": 5112,
      "rape": 5113,
      "overthink": 5114,
      "managing": 5115,
      "syndrome": 5116,
      "kinds": 5117,
      "humili": 5118,
      "desk": 5119,
      "oblig": 5120,
      "psychological": 5121,
      "goddamn": 5122,
      "refle": 5123,
      "exercising": 5124,
      "33": 5125,
      "June": 5126,
      "LA": 5127,
      "wtf": 5128,
      "thru": 5129,
      "inting": 5130,
      "ressed": 5131,
      "states": 5132,
      "meas": 5133,
      "artist": 5134,
      "ashes": 5135,
      "formed": 5136,
      "adder": 5137,
      "pls": 5138,
      "clar": 5139,
      "spected": 5140,
      "complex": 5141,
      "truck": 5142,
      "responses": 5143,
      "negle": 5144,
      "questioning": 5145,
      "February": 5146,
      "distracted": 5147,
      "behaviour": 5148,
      "Work": 5149,
      "draining": 5150,
      "irritable": 5151,
      "Hopefully": 5152,
      "adults": 5153,
      "dollars": 5154,
      "laptop": 5155,
      "restaurant": 5156,
      "Seroquel": 5157,
      "70": 5158,
      "sla": 5159,
      "ury": 5160,
      "yp": 5161,
      "reli": 5162,
      "peers": 5163,
      "backs": 5164,
      "fulness": 5165,
      "tras": 5166,
      "pulling": 5167,
      "color": 5168,
      "controll": 5169,
      "improvement": 5170,
      "temper": 5171,
      "complaining": 5172,
      "dosage": 5173,
      "AV": 5174,
      "OK": 5175,
      "Rel": 5176,
      "UST": 5177,
      "iving": 5178,
      "lun": 5179,
      "”.": 5180,
      "ann": 5181,
      "haun": 5182,
      "anted": 5183,
      "wont": 5184,
      "bili": 5185,
      "sympathy": 5186,
      "remembered": 5187,
      "awareness": 5188,
      "pets": 5189,
      "violence": 5190,
      "requires": 5191,
      "yrs": 5192,
      "relapse": 5193,
      "assaulted": 5194,
      "borderline": 5195,
      "WALLSI": 5196,
      "nasty": 5197,
      "LD": 5198,
      "fra": 5199,
      "nb": 5200,
      "san": 5201,
      "umb": 5202,
      "upper": 5203,
      "anony": 5204,
      "toi": 5205,
      "someday": 5206,
      "proof": 5207,
      "whoever": 5208,
      "overly": 5209,
      "paraly": 5210,
      "brains": 5211,
      "Too": 5212,
      "treats": 5213,
      "drawing": 5214,
      "immediate": 5215,
      "switched": 5216,
      "fingers": 5217,
      "aaaaaaaa": 5218,
      "surviving": 5219,
      "photos": 5220,
      "skip": 5221,
      "concerns": 5222,
      "separate": 5223,
      "zomb": 5224,
      "Hes": 5225,
      "Lost": 5226,
      "size": 5227,
      "iss": 5228,
      "ory": 5229,
      "seiz": 5230,
      "rum": 5231,
      "waited": 5232,
      "applying": 5233,
      "laund": 5234,
      "treating": 5235,
      "mense": 5236,
      "fallen": 5237,
      "despise": 5238,
      "triggering": 5239,
      "smoked": 5240,
      "charge": 5241,
      "continues": 5242,
      "swim": 5243,
      "alternative": 5244,
      "MRI": 5245,
      "rele": 5246,
      "kes": 5247,
      "former": 5248,
      "dizz": 5249,
      "worker": 5250,
      "laid": 5251,
      "surface": 5252,
      "believing": 5253,
      "glass": 5254,
      "previously": 5255,
      "reduce": 5256,
      "confusing": 5257,
      "Eventually": 5258,
      "PM": 5259,
      "bic": 5260,
      "fro": 5261,
      "gies": 5262,
      "lung": 5263,
      "port": 5264,
      "amin": 5265,
      "button": 5266,
      "hopeful": 5267,
      "mallest": 5268,
      "restri": 5269,
      "price": 5270,
      "creative": 5271,
      "shopping": 5272,
      "focusing": 5273,
      "transit": 5274,
      "kiss": 5275,
      "website": 5276,
      "article": 5277,
      "devastated": 5278,
      "BS": 5279,
      "Ke": 5280,
      "Know": 5281,
      "encies": 5282,
      "dear": 5283,
      "wild": 5284,
      "heat": 5285,
      "unsure": 5286,
      "immense": 5287,
      "tax": 5288,
      "lessly": 5289,
      "extent": 5290,
      "frank": 5291,
      "messy": 5292,
      "shock": 5293,
      "viously": 5294,
      "presence": 5295,
      "Until": 5296,
      "spiraling": 5297,
      "pleasant": 5298,
      "holidays": 5299,
      "coworker": 5300,
      "wrists": 5301,
      "alien": 5302,
      "seroquel": 5303,
      "Either": 5304,
      "ivity": 5305,
      "sac": 5306,
      "smallest": 5307,
      "thri": 5308,
      "ancy": 5309,
      "stig": 5310,
      "rolling": 5311,
      "mentary": 5312,
      "Through": 5313,
      "dislike": 5314,
      "2022": 5315,
      "ffic": 5316,
      "socialize": 5317,
      "seemingly": 5318,
      "thankful": 5319,
      "address": 5320,
      "sucked": 5321,
      "sugar": 5322,
      "destroying": 5323,
      "surprise": 5324,
      "techn": 5325,
      "Self": 5326,
      "trasound": 5327,
      "toilet": 5328,
      "Dad": 5329,
      "PE": 5330,
      "Very": 5331,
      "WANT": 5332,
      "dar": 5333,
      "sust": 5334,
      "anc": 5335,
      "abilities": 5336,
      "betes": 5337,
      "harmed": 5338,
      "ultrasound": 5339,
      "lovely": 5340,
      "izz": 5341,
      "shown": 5342,
      "solved": 5343,
      "realization": 5344,
      "crave": 5345,
      "lights": 5346,
      "confli": 5347,
      "exciting": 5348,
      "committing": 5349,
      "improving": 5350,
      "nesday": 5351,
      "practically": 5352,
      "complicated": 5353,
      "optimist": 5354,
      "Google": 5355,
      "sabot": 5356,
      "dizziness": 5357,
      "IC": 5358,
      "OW": 5359,
      "invalid": 5360,
      "sooo": 5361,
      "moms": 5362,
      "cooking": 5363,
      "shif": 5364,
      "agger": 5365,
      "guarant": 5366,
      "fuckin": 5367,
      "mins": 5368,
      "internship": 5369,
      "relieved": 5370,
      "clinical": 5371,
      "manipulative": 5372,
      "guts": 5373,
      "impulsive": 5374,
      "combination": 5375,
      "legitim": 5376,
      "murder": 5377,
      "laundry": 5378,
      "uk": 5379,
      "vant": 5380,
      "inno": 5381,
      "insist": 5382,
      "tire": 5383,
      "acne": 5384,
      "acknowledge": 5385,
      "host": 5386,
      "sometime": 5387,
      "ques": 5388,
      "ggy": 5389,
      "docu": 5390,
      "nerve": 5391,
      "horia": 5392,
      "logically": 5393,
      "walks": 5394,
      "burned": 5395,
      "manifest": 5396,
      "retard": 5397,
      "spread": 5398,
      "popular": 5399,
      "'.": 5400,
      "Col": 5401,
      "HIV": 5402,
      "IR": 5403,
      "dat": 5404,
      "gap": 5405,
      "len": 5406,
      "range": 5407,
      "returned": 5408,
      "uncertain": 5409,
      "update": 5410,
      "plane": 5411,
      "believes": 5412,
      "shocked": 5413,
      "cured": 5414,
      "terribly": 5415,
      "doub": 5416,
      "appropri": 5417,
      "slipping": 5418,
      "heaven": 5419,
      "Facebook": 5420,
      "Sp": 5421,
      "jail": 5422,
      "rash": 5423,
      "stool": 5424,
      "ware": 5425,
      "influ": 5426,
      "incapable": 5427,
      "staff": 5428,
      "abroad": 5429,
      "loa": 5430,
      "boo": 5431,
      "bike": 5432,
      "italop": 5433,
      "damaged": 5434,
      "responded": 5435,
      "compli": 5436,
      "faced": 5437,
      "laws": 5438,
      "feedback": 5439,
      "require": 5440,
      "refuses": 5441,
      "film": 5442,
      "shelter": 5443,
      "schizophren": 5444,
      "Abili": 5445,
      "Mom": 5446,
      "Sleep": 5447,
      "ip": 5448,
      "xx": 5449,
      "infer": 5450,
      "input": 5451,
      "holes": 5452,
      "overweight": 5453,
      "disappeared": 5454,
      "headed": 5455,
      "gather": 5456,
      "fights": 5457,
      "graduating": 5458,
      "irritated": 5459,
      "debilit": 5460,
      "Latuda": 5461,
      "culture": 5462,
      "battling": 5463,
      "Abilify": 5464,
      "PLE": 5465,
      "ud": 5466,
      "analy": 5467,
      "forth": 5468,
      "master": 5469,
      "shir": 5470,
      "rumin": 5471,
      "span": 5472,
      "joined": 5473,
      "Though": 5474,
      "chores": 5475,
      "traline": 5476,
      "design": 5477,
      "Anything": 5478,
      "isolating": 5479,
      "survived": 5480,
      "SSRI": 5481,
      "TLDR": 5482,
      "injury": 5483,
      "amotri": 5484,
      "University": 5485,
      "gine": 5486,
      "ancing": 5487,
      "epam": 5488,
      "disconnected": 5489,
      "match": 5490,
      "Lithium": 5491,
      "hormone": 5492,
      "literal": 5493,
      "cuts": 5494,
      "antipsychotic": 5495,
      "machine": 5496,
      "names": 5497,
      "hopelessness": 5498,
      "hotel": 5499,
      "attracted": 5500,
      "adequ": 5501,
      "required": 5502,
      "crashing": 5503,
      "determin": 5504,
      "contribute": 5505,
      "challeng": 5506,
      "aggressive": 5507,
      "italopram": 5508,
      "Ear": 5509,
      "FE": 5510,
      "Out": 5511,
      "Ro": 5512,
      "chair": 5513,
      "jer": 5514,
      "icking": 5515,
      "ids": 5516,
      "cops": 5517,
      "hero": 5518,
      "ular": 5519,
      "types": 5520,
      "cloud": 5521,
      "fianc": 5522,
      "sadly": 5523,
      "speech": 5524,
      "dentist": 5525,
      "Living": 5526,
      "attempting": 5527,
      "classmates": 5528,
      "factors": 5529,
      "fortunate": 5530,
      "relatives": 5531,
      "conveni": 5532,
      "Hy": 5533,
      "Xanax": 5534,
      "avo": 5535,
      "leng": 5536,
      "mount": 5537,
      "passes": 5538,
      "sink": 5539,
      "replace": 5540,
      "atm": 5541,
      "ordin": 5542,
      "ution": 5543,
      "chill": 5544,
      "acity": 5545,
      "shat": 5546,
      "perceive": 5547,
      "imm": 5548,
      "proceed": 5549,
      "rule": 5550,
      "tooth": 5551,
      "series": 5552,
      "humanity": 5553,
      "excite": 5554,
      "invite": 5555,
      "straw": 5556,
      "reminds": 5557,
      "CBT": 5558,
      "Friends": 5559,
      "addition": 5560,
      "guidance": 5561,
      "favour": 5562,
      "optimistic": 5563,
      ".*": 5564,
      "Ac": 5565,
      "CH": 5566,
      "Par": 5567,
      "Tues": 5568,
      "Went": 5569,
      "WHAT": 5570,
      "dick": 5571,
      "gaming": 5572,
      "tall": 5573,
      "vs": 5574,
      "node": 5575,
      "sets": 5576,
      "aying": 5577,
      "unte": 5578,
      "plat": 5579,
      "teens": 5580,
      "weekends": 5581,
      "lows": 5582,
      "puts": 5583,
      "reasonable": 5584,
      "existential": 5585,
      "sett": 5586,
      "supported": 5587,
      "tons": 5588,
      "beauty": 5589,
      "permanently": 5590,
      "ounce": 5591,
      "employment": 5592,
      "copy": 5593,
      "!\"": 5594,
      "BUT": 5595,
      "En": 5596,
      "Many": 5597,
      "bally": 5598,
      "evid": 5599,
      "inge": 5600,
      "vet": 5601,
      "sobbing": 5602,
      "suspect": 5603,
      "iffer": 5604,
      "dig": 5605,
      "mance": 5606,
      "studied": 5607,
      "ggling": 5608,
      "colon": 5609,
      "identity": 5610,
      "faster": 5611,
      "blamed": 5612,
      "HAHA": 5613,
      "engage": 5614,
      "Prozac": 5615,
      "satisfied": 5616,
      "increasing": 5617,
      "remotely": 5618,
      "Saturday": 5619,
      "CA": 5620,
      "Tal": 5621,
      "hed": 5622,
      "itor": 5623,
      "omed": 5624,
      "tone": 5625,
      "prepare": 5626,
      "confront": 5627,
      "tingling": 5628,
      "dissa": 5629,
      "realistic": 5630,
      "surely": 5631,
      "supple": 5632,
      "objective": 5633,
      "miles": 5634,
      "cycling": 5635,
      "listened": 5636,
      "explaining": 5637,
      "High": 5638,
      "sweating": 5639,
      "families": 5640,
      "counseling": 5641,
      "thyroid": 5642,
      "transition": 5643,
      "PO": 5644,
      "Up": 5645,
      "cs": 5646,
      "sand": 5647,
      "inate": 5648,
      "security": 5649,
      "deed": 5650,
      "abs": 5651,
      "hollow": 5652,
      "exagger": 5653,
      "ilst": 5654,
      "workers": 5655,
      "longest": 5656,
      "mbling": 5657,
      "fiance": 5658,
      "diagnose": 5659,
      "tree": 5660,
      "denied": 5661,
      "pays": 5662,
      "privi": 5663,
      "successfully": 5664,
      "Feels": 5665,
      "distraction": 5666,
      "climb": 5667,
      "twist": 5668,
      "include": 5669,
      "patients": 5670,
      "threatening": 5671,
      "defeated": 5672,
      "encouragement": 5673,
      "zapine": 5674,
      "Obviously": 5675,
      "32": 5676,
      "rend": 5677,
      "nodes": 5678,
      "selling": 5679,
      "rip": 5680,
      "nowadays": 5681,
      "agging": 5682,
      "joking": 5683,
      "waway": 5684,
      "waves": 5685,
      "stret": 5686,
      "smiling": 5687,
      "paycheck": 5688,
      "marks": 5689,
      "deserved": 5690,
      "resort": 5691,
      "club": 5692,
      "reminder": 5693,
      "chase": 5694,
      "solutions": 5695,
      "occasional": 5696,
      "entertain": 5697,
      "rabies": 5698,
      "rooms": 5699,
      "Thoughts": 5700,
      "shooting": 5701,
      "AVPD": 5702,
      "amotrigine": 5703,
      "Tuesday": 5704,
      "evidence": 5705,
      "ave": 5706,
      "chas": 5707,
      "fate": 5708,
      "zoloft": 5709,
      "inability": 5710,
      "atures": 5711,
      "sold": 5712,
      "kets": 5713,
      "iding": 5714,
      "uncontroll": 5715,
      "ters": 5716,
      "olar": 5717,
      "harsh": 5718,
      "cture": 5719,
      "hire": 5720,
      "Inst": 5721,
      "thankfully": 5722,
      "views": 5723,
      "grandparents": 5724,
      "engaged": 5725,
      "graduation": 5726,
      "judged": 5727,
      "googled": 5728,
      "Advice": 5729,
      "Sad": 5730,
      "ator": 5731,
      "slit": 5732,
      "tes": 5733,
      "thesis": 5734,
      "verbally": 5735,
      "forgetting": 5736,
      "cake": 5737,
      "agony": 5738,
      "fade": 5739,
      "brut": 5740,
      "2016": 5741,
      "interactions": 5742,
      "iously": 5743,
      "achel": 5744,
      "virt": 5745,
      "sorts": 5746,
      "songs": 5747,
      "introdu": 5748,
      "survival": 5749,
      "frankly": 5750,
      "DI": 5751,
      "End": 5752,
      "KNOW": 5753,
      "dun": 5754,
      "skill": 5755,
      "vig": 5756,
      "wreck": 5757,
      "ories": 5758,
      "itar": 5759,
      "limb": 5760,
      "alling": 5761,
      "exper": 5762,
      "shell": 5763,
      "compan": 5764,
      "lasting": 5765,
      "vivid": 5766,
      "cars": 5767,
      "blaming": 5768,
      "Goodbye": 5769,
      "Medic": 5770,
      "----------------": 5771,
      "aspir": 5772,
      "brave": 5773,
      "performance": 5774,
      "induced": 5775,
      "lungs": 5776,
      ",\"": 5777,
      "4th": 5778,
      "DE": 5779,
      "GAD": 5780,
      "Tried": 5781,
      "crow": 5782,
      "kin": 5783,
      "pour": 5784,
      "instru": 5785,
      "repair": 5786,
      "cases": 5787,
      "endure": 5788,
      "exit": 5789,
      "urb": 5790,
      "stone": 5791,
      "curities": 5792,
      "enjoyment": 5793,
      "testing": 5794,
      "visits": 5795,
      "visited": 5796,
      "trusted": 5797,
      "imagining": 5798,
      "tonin": 5799,
      "pulse": 5800,
      "traumatized": 5801,
      "consciously": 5802,
      "diabetes": 5803,
      "Person": 5804,
      "HATE": 5805,
      "wishes": 5806,
      "Plus": 5807,
      "zombie": 5808,
      "Bet": 5809,
      "Di": 5810,
      "Due": 5811,
      "Mental": 5812,
      "mour": 5813,
      "iny": 5814,
      "ites": 5815,
      "bes": 5816,
      "amou": 5817,
      "rop": 5818,
      "mod": 5819,
      "sured": 5820,
      "unwanted": 5821,
      "inder": 5822,
      "apathy": 5823,
      "extended": 5824,
      "pointed": 5825,
      "cheer": 5826,
      "brow": 5827,
      "REALLY": 5828,
      "ttes": 5829,
      "adding": 5830,
      "neglect": 5831,
      "Depressed": 5832,
      "weakness": 5833,
      "manageable": 5834,
      "scheduled": 5835,
      "interviews": 5836,
      "hypochondriac": 5837,
      "grocery": 5838,
      "betrayed": 5839,
      "intelligent": 5840,
      "professionals": 5841,
      "75": 5842,
      "ASE": 5843,
      "Fam": 5844,
      "KK": 5845,
      "Wed": 5846,
      "egg": 5847,
      "kg": 5848,
      "lash": 5849,
      "ull": 5850,
      "rece": 5851,
      "havent": 5852,
      "tied": 5853,
      "rolled": 5854,
      "peak": 5855,
      "undiagnosed": 5856,
      "raz": 5857,
      "reads": 5858,
      "stresses": 5859,
      "schools": 5860,
      "ordered": 5861,
      "remembering": 5862,
      "sentence": 5863,
      "phones": 5864,
      "THAT": 5865,
      "beaten": 5866,
      "slip": 5867,
      "balls": 5868,
      "crushed": 5869,
      "obsessive": 5870,
      "horribly": 5871,
      "arrived": 5872,
      "sacri": 5873,
      "sustain": 5874,
      "debilitating": 5875,
      "Ma": 5876,
      "SU": 5877,
      "WAY": 5878,
      "evalu": 5879,
      "flying": 5880,
      "retail": 5881,
      "rehab": 5882,
      "enge": 5883,
      "ambul": 5884,
      "ets": 5885,
      "susp": 5886,
      "urgent": 5887,
      "tea": 5888,
      "spar": 5889,
      "searched": 5890,
      "walls": 5891,
      "volunte": 5892,
      "fantasy": 5893,
      "mechanisms": 5894,
      "associated": 5895,
      "neglected": 5896,
      "appropriate": 5897,
      "Pain": 5898,
      "friday": 5899,
      "envy": 5900,
      "itation": 5901,
      "beach": 5902,
      "lege": 5903,
      "whilst": 5904,
      "depart": 5905,
      "preh": 5906,
      "urges": 5907,
      "compare": 5908,
      "ereal": 5909,
      "sites": 5910,
      "serv": 5911,
      "eases": 5912,
      "substance": 5913,
      "creating": 5914,
      "foods": 5915,
      "30s": 5916,
      "described": 5917,
      "supporting": 5918,
      "tendencies": 5919,
      "insecurities": 5920,
      "Suicidal": 5921,
      "letters": 5922,
      "fulfilling": 5923,
      "________": 5924,
      "cancel": 5925,
      "cognitive": 5926,
      "hallucinations": 5927,
      "material": 5928,
      "nbsp": 5929,
      "Keep": 5930,
      "immune": 5931,
      "Ar": 5932,
      "JUST": 5933,
      "Luck": 5934,
      "Tr": 5935,
      "dress": 5936,
      "melt": 5937,
      "album": 5938,
      "begged": 5939,
      "arrest": 5940,
      "vention": 5941,
      "indust": 5942,
      "ousing": 5943,
      "weekly": 5944,
      "lasts": 5945,
      "poster": 5946,
      "motions": 5947,
      "shadow": 5948,
      "trick": 5949,
      "enjoyable": 5950,
      "avoidant": 5951,
      "bully": 5952,
      "replied": 5953,
      "consciousness": 5954,
      "punching": 5955,
      "crushing": 5956,
      "streets": 5957,
      "thousands": 5958,
      "increasingly": 5959,
      "vomit": 5960,
      "abdomen": 5961,
      "difficulty": 5962,
      "relevant": 5963,
      "loathing": 5964,
      "Family": 5965,
      "Fear": 5966,
      "bothers": 5967,
      "cand": 5968,
      "eve": 5969,
      "kicking": 5970,
      "stutter": 5971,
      "meals": 5972,
      "liking": 5973,
      "icious": 5974,
      "abt": 5975,
      "hobia": 5976,
      "predic": 5977,
      "indic": 5978,
      "healthcare": 5979,
      "closing": 5980,
      "spects": 5981,
      "ticket": 5982,
      "motivate": 5983,
      "ification": 5984,
      "capacity": 5985,
      "benz": 5986,
      "Without": 5987,
      "strict": 5988,
      "pregnancy": 5989,
      "freshman": 5990,
      "explode": 5991,
      "attach": 5992,
      "rupt": 5993,
      "AAAAAAAAAAAAAAAAAAAAAAAAAAAAAAAAAAAAAAAAAAAAAAAAAAAAAAAAAAAAAAAAAAAAAAAAAAAAAAAAAAAAAAAAAAAAAAAAAAAAAAAAAAAAAAAAAAAAAAAAAAAAAAAAAAAAAAAAAAAAAAAAAAAAAAAAAAAAAAAAAAAAAAAAAAAAAAAAAAAAAAAAAAAAAAAAAAAAAAAAAAAAAAAAAAAAAAAAAAAAAAAAAAAAAAAAAAAAAAAAAAAAAAAAAAAAAAAAAAAAAAAAAAAAAAAAAAAAAAAAAAAAAAAAAAAAAAAAAAAAAAAAAAAAAAAAAAAAAAAAAAAAAAAAAAAAAAAAAAAAAAAAAAAAAAAAAAAAAAAAAAAAAAAAAAAAAAAAAAAAAAAAAAAAAAAAAAAAAAAAAAAAAAAAAAAAAAAAAAAAAAAAAAAAAAAAAAAAAAAAAAAAAAAAAAAAAAAAAAAAAAAAAAAAAAAAAAAAAAAAAAAAAAAAAAAAAAAAAAAAAAAAAAAAAAAA": 5994,
      "Apparently": 5995,
      "amounts": 5996,
      "EK": 5997,
      "Each": 5998,
      "Tell": 5999,
      "bod": 6000,
      "equi": 6001,
      "inct": 6002,
      "inary": 6003,
      "aries": 6004,
      "doors": 6005,
      "loan": 6006,
      "youth": 6007,
      "concept": 6008,
      "ideal": 6009,
      "taper": 6010,
      "strate": 6011,
      "traffic": 6012,
      "driven": 6013,
      "confir": 6014,
      "exhaustion": 6015,
      "grandfather": 6016,
      "HAVE": 6017,
      "click": 6018,
      "direct": 6019,
      "incredible": 6020,
      "occasions": 6021,
      "assumed": 6022,
      "embarrassment": 6023,
      "celebrate": 6024,
      "anime": 6025,
      "wkwk": 6026,
      "folks": 6027,
      "chasing": 6028,
      "EM": 6029,
      "Gre": 6030,
      "bite": 6031,
      "bpd": 6032,
      "ires": 6033,
      "km": 6034,
      "sends": 6035,
      "reve": 6036,
      "asm": 6037,
      "chur": 6038,
      "unmotivated": 6039,
      "happiest": 6040,
      "xist": 6041,
      "supervis": 6042,
      "psychology": 6043,
      "finishing": 6044,
      "panicked": 6045,
      "techniques": 6046,
      "avoided": 6047,
      "/)": 6048,
      "PR": 6049,
      "SA": 6050,
      "ego": 6051,
      "fig": 6052,
      "gif": 6053,
      "pc": 6054,
      "sne": 6055,
      "inconveni": 6056,
      "tie": 6057,
      "ungrateful": 6058,
      "areas": 6059,
      "compreh": 6060,
      "mono": 6061,
      "finds": 6062,
      "services": 6063,
      "tense": 6064,
      "partners": 6065,
      "Heart": 6066,
      "exists": 6067,
      "Allah": 6068,
      "screw": 6069,
      "adopt": 6070,
      "scholar": 6071,
      "typically": 6072,
      "narcissistic": 6073,
      "Started": 6074,
      "cigarettes": 6075,
      "explanation": 6076,
      "anonymous": 6077,
      "hedon": 6078,
      "ambulance": 6079,
      "PA": 6080,
      "dim": 6081,
      "rut": 6082,
      "snow": 6083,
      "thr": 6084,
      "accounts": 6085,
      "unknown": 6086,
      "combo": 6087,
      "erely": 6088,
      "ists": 6089,
      "Thursday": 6090,
      "bore": 6091,
      "items": 6092,
      "bub": 6093,
      "frag": 6094,
      "cord": 6095,
      "countries": 6096,
      "patience": 6097,
      "praying": 6098,
      "secretly": 6099,
      "Fucking": 6100,
      "slave": 6101,
      "500": 6102,
      "LP": 6103,
      "MI": 6104,
      "Stru": 6105,
      "Stop": 6106,
      "Tri": 6107,
      "econ": 6108,
      "glo": 6109,
      "lur": 6110,
      "pharm": 6111,
      "thigh": 6112,
      "inated": 6113,
      "erous": 6114,
      "entered": 6115,
      "pee": 6116,
      "lifetime": 6117,
      "bled": 6118,
      "spin": 6119,
      "monitor": 6120,
      "boys": 6121,
      "cheap": 6122,
      "label": 6123,
      "kindness": 6124,
      "sickness": 6125,
      "passive": 6126,
      "shoes": 6127,
      "runs": 6128,
      "negativity": 6129,
      "sorrow": 6130,
      "excuses": 6131,
      "oxy": 6132,
      "counselling": 6133,
      "discussion": 6134,
      "suffocating": 6135,
      "data": 6136,
      "excitement": 6137,
      ")?": 6138,
      "Act": 6139,
      "EX": 6140,
      "Hell": 6141,
      "Pret": 6142,
      "Turn": 6143,
      "eup": 6144,
      "hic": 6145,
      "punch": 6146,
      "yel": 6147,
      "section": 6148,
      "hest": 6149,
      "cock": 6150,
      "agon": 6151,
      "agues": 6152,
      "spite": 6153,
      "guitar": 6154,
      "lesson": 6155,
      "dishes": 6156,
      "scene": 6157,
      "stream": 6158,
      "mindfulness": 6159,
      "fucks": 6160,
      "visiting": 6161,
      "hangout": 6162,
      "graph": 6163,
      "cleaned": 6164,
      "bullet": 6165,
      "luckily": 6166,
      "virus": 6167,
      "turkey": 6168,
      "starving": 6169,
      "referred": 6170,
      "roller": 6171,
      "Both": 6172,
      "challenge": 6173,
      "scratch": 6174,
      "assistance": 6175,
      "stabiliz": 6176,
      "Tom": 6177,
      "UN": 6178,
      "dut": 6179,
      "housing": 6180,
      "sco": 6181,
      "xa": 6182,
      "xor": 6183,
      "yard": 6184,
      "relea": 6185,
      "recovered": 6186,
      "whis": 6187,
      "extern": 6188,
      "confe": 6189,
      "atest": 6190,
      "welling": 6191,
      "torment": 6192,
      "1000": 6193,
      "socializing": 6194,
      "dads": 6195,
      "driver": 6196,
      "mile": 6197,
      "shortly": 6198,
      "faces": 6199,
      "annoy": 6200,
      "beats": 6201,
      "regrets": 6202,
      "relieve": 6203,
      "behaviors": 6204,
      "presentation": 6205,
      "flir": 6206,
      "channel": 6207,
      "consumed": 6208,
      "tools": 6209,
      "initi": 6210,
      "Seeing": 6211,
      "traveling": 6212,
      "repeatedly": 6213,
      "inferior": 6214,
      "shirt": 6215,
      "1st": 6216,
      "36": 6217,
      "Tru": 6218,
      "cash": 6219,
      "ko": 6220,
      "owe": 6221,
      "doomed": 6222,
      "iff": 6223,
      "poll": 6224,
      "proced": 6225,
      "spell": 6226,
      "guard": 6227,
      "disappo": 6228,
      "diseases": 6229,
      "Social": 6230,
      "greatest": 6231,
      "breakfast": 6232,
      "cringe": 6233,
      "hygi": 6234,
      "strongly": 6235,
      "Real": 6236,
      "psychiatrists": 6237,
      "arrhea": 6238,
      "parties": 6239,
      "costs": 6240,
      "sensations": 6241,
      "fulfill": 6242,
      "................": 6243,
      "location": 6244,
      "chicken": 6245,
      "PLEASE": 6246,
      "RIs": 6247,
      "ec": 6248,
      "ect": 6249,
      "sider": 6250,
      "vated": 6251,
      "onder": 6252,
      "isnt": 6253,
      "secure": 6254,
      "wide": 6255,
      "adren": 6256,
      "unlike": 6257,
      "perform": 6258,
      "whose": 6259,
      "getic": 6260,
      "afterlife": 6261,
      "bomb": 6262,
      "brand": 6263,
      "bile": 6264,
      "curse": 6265,
      "messing": 6266,
      "---": 6267,
      "wheel": 6268,
      "poorly": 6269,
      "repeating": 6270,
      "vacy": 6271,
      "fantasize": 6272,
      "official": 6273,
      "confusion": 6274,
      "assignments": 6275,
      "Guess": 6276,
      "cardiologist": 6277,
      "numerous": 6278,
      "technically": 6279,
      "300": 6280,
      "AB": 6281,
      "Effe": 6282,
      "IM": 6283,
      "dust": 6284,
      "dance": 6285,
      "kn": 6286,
      "tat": 6287,
      "recall": 6288,
      "argue": 6289,
      "forts": 6290,
      "abor": 6291,
      "esus": 6292,
      "hoped": 6293,
      "astro": 6294,
      "prolong": 6295,
      "therefore": 6296,
      "fold": 6297,
      "overreacting": 6298,
      "spark": 6299,
      "choosing": 6300,
      "nothingness": 6301,
      "closet": 6302,
      "huh": 6303,
      "marry": 6304,
      "ension": 6305,
      "depth": 6306,
      "thood": 6307,
      "correctly": 6308,
      "demons": 6309,
      "identify": 6310,
      "CAN": 6311,
      "HS": 6312,
      "Hu": 6313,
      "Sy": 6314,
      "Whe": 6315,
      "ape": 6316,
      "bbed": 6317,
      "gam": 6318,
      "vague": 6319,
      "inher": 6320,
      "err": 6321,
      "toward": 6322,
      "revol": 6323,
      "station": 6324,
      "seven": 6325,
      "behave": 6326,
      "doom": 6327,
      "root": 6328,
      "abnormal": 6329,
      "acqu": 6330,
      "herbs": 6331,
      "dip": 6332,
      "ours": 6333,
      "granted": 6334,
      "moral": 6335,
      "fies": 6336,
      "suffers": 6337,
      "privacy": 6338,
      "begun": 6339,
      "unior": 6340,
      "smaller": 6341,
      "tongue": 6342,
      "factor": 6343,
      "jumped": 6344,
      "cliff": 6345,
      "vicious": 6346,
      "achieved": 6347,
      "introvert": 6348,
      "introverted": 6349,
      "consuming": 6350,
      "recovering": 6351,
      "eternal": 6352,
      "innocent": 6353,
      "dunno": 6354,
      "receiving": 6355,
      "EKG": 6356,
      "church": 6357,
      "Ru": 6358,
      "Scared": 6359,
      "\\\\": 6360,
      "gard": 6361,
      "jack": 6362,
      "mend": 6363,
      "pdoc": 6364,
      "era": 6365,
      "noose": 6366,
      "molest": 6367,
      "lovable": 6368,
      "suit": 6369,
      "iring": 6370,
      "indiffer": 6371,
      "combat": 6372,
      "ides": 6373,
      "blew": 6374,
      "istically": 6375,
      "grind": 6376,
      "torn": 6377,
      "suring": 6378,
      "fron": 6379,
      "medio": 6380,
      "product": 6381,
      "judging": 6382,
      "SOME": 6383,
      "route": 6384,
      "gaslight": 6385,
      "initially": 6386,
      "Seriously": 6387,
      "paralyzed": 6388,
      "schizophrenia": 6389,
      "brutal": 6390,
      "Wednesday": 6391,
      "Luckily": 6392,
      "DAY": 6393,
      "PP": 6394,
      "Sto": 6395,
      "Sur": 6396,
      "bil": 6397,
      "bones": 6398,
      "dreading": 6399,
      "faction": 6400,
      "kar": 6401,
      "nie": 6402,
      "sane": 6403,
      "swing": 6404,
      "rein": 6405,
      "beer": 6406,
      "arter": 6407,
      "outcome": 6408,
      "expressed": 6409,
      "constru": 6410,
      "ural": 6411,
      "stock": 6412,
      "efforts": 6413,
      "falls": 6414,
      "profile": 6415,
      "touching": 6416,
      "grammar": 6417,
      "relaxed": 6418,
      "involve": 6419,
      "yoga": 6420,
      "accomplished": 6421,
      "survivor": 6422,
      "kissed": 6423,
      "dragging": 6424,
      "arantine": 6425,
      "migraines": 6426,
      "Knowing": 6427,
      "LF": 6428,
      "bup": 6429,
      "cm": 6430,
      "dor": 6431,
      "fits": 6432,
      "rise": 6433,
      "itated": 6434,
      "leth": 6435,
      "edit": 6436,
      "cos": 6437,
      "teaching": 6438,
      "gued": 6439,
      "apathetic": 6440,
      "fellow": 6441,
      "healthier": 6442,
      "20mg": 6443,
      "stays": 6444,
      "parking": 6445,
      "akote": 6446,
      "kidney": 6447,
      "consent": 6448,
      "controlled": 6449,
      "50mg": 6450,
      "sexuality": 6451,
      "assuming": 6452,
      "elementary": 6453,
      "obsessing": 6454,
      "brushing": 6455,
      "intentionally": 6456,
      "initial": 6457,
      "youtu": 6458,
      "Quest": 6459,
      "status": 6460,
      "poisoning": 6461,
      "intimate": 6462,
      "delusional": 6463,
      "masturb": 6464,
      "length": 6465,
      "industry": 6466,
      "##": 6467,
      "34": 6468,
      ";&": 6469,
      "Dep": 6470,
      "Jo": 6471,
      "PS": 6472,
      "Tra": 6473,
      "atory": 6474,
      "cream": 6475,
      "dm": 6476,
      "phe": 6477,
      "pile": 6478,
      "yea": 6479,
      "inating": 6480,
      "aled": 6481,
      "orrow": 6482,
      "veness": 6483,
      "Think": 6484,
      "discus": 6485,
      "boost": 6486,
      "blog": 6487,
      "drift": 6488,
      "craving": 6489,
      "fici": 6490,
      "blan": 6491,
      "antibio": 6492,
      "midnight": 6493,
      "abuser": 6494,
      "loner": 6495,
      "depending": 6496,
      "guns": 6497,
      "regist": 6498,
      "burnout": 6499,
      "loads": 6500,
      "dysp": 6501,
      "portion": 6502,
      "pillow": 6503,
      "washing": 6504,
      "HELP": 6505,
      "satisfaction": 6506,
      "Perhaps": 6507,
      "assignment": 6508,
      "intimacy": 6509,
      "storm": 6510,
      "adequate": 6511,
      "mountain": 6512,
      "disappointing": 6513,
      "hygiene": 6514,
      "Cont": 6515,
      "Ton": 6516,
      "ix": 6517,
      "kit": 6518,
      "knee": 6519,
      "xy": 6520,
      "infl": 6521,
      "resu": 6522,
      "respected": 6523,
      "seat": 6524,
      "ligh": 6525,
      "assess": 6526,
      "amps": 6527,
      "kest": 6528,
      "verbal": 6529,
      "oney": 6530,
      "accur": 6531,
      "entally": 6532,
      "plate": 6533,
      "screamed": 6534,
      "oping": 6535,
      "highs": 6536,
      "diagnoses": 6537,
      "aka": 6538,
      "pride": 6539,
      "custom": 6540,
      "signed": 6541,
      "Look": 6542,
      "troubles": 6543,
      "vari": 6544,
      "transport": 6545,
      "competent": 6546,
      "significantly": 6547,
      "aspects": 6548,
      "spiritual": 6549,
      "azepam": 6550,
      "engineering": 6551,
      "Happy": 6552,
      "Music": 6553,
      "Pretty": 6554,
      "released": 6555,
      "Whether": 6556,
      "48": 6557,
      "Dam": 6558,
      "Ugh": 6559,
      "Years": 6560,
      "ls": 6561,
      "lin": 6562,
      "lamotrigine": 6563,
      "pace": 6564,
      "tum": 6565,
      "invisible": 6566,
      "ona": 6567,
      "reward": 6568,
      "semi": 6569,
      "belt": 6570,
      "eting": 6571,
      "etine": 6572,
      "pover": 6573,
      "pool": 6574,
      "percent": 6575,
      "user": 6576,
      "apping": 6577,
      "matically": 6578,
      "heartbroken": 6579,
      "hurtful": 6580,
      "colleagues": 6581,
      "messaged": 6582,
      "gaining": 6583,
      "lonopin": 6584,
      "phobia": 6585,
      "urope": 6586,
      "cousins": 6587,
      "miracle": 6588,
      "sticking": 6589,
      "excessive": 6590,
      "tattoo": 6591,
      "DA": 6592,
      "Kind": 6593,
      "bachel": 6594,
      "eight": 6595,
      "fright": 6596,
      "hon": 6597,
      "ilo": 6598,
      "theless": 6599,
      "sea": 6600,
      "liqu": 6601,
      "lifting": 6602,
      "christ": 6603,
      "robot": 6604,
      "abili": 6605,
      "homo": 6606,
      "code": 6607,
      "worn": 6608,
      "preparing": 6609,
      "consul": 6610,
      "quarantine": 6611,
      "mentality": 6612,
      "decrea": 6613,
      "denial": 6614,
      "Anybody": 6615,
      "traum": 6616,
      "showering": 6617,
      "courses": 6618,
      "holds": 6619,
      "growth": 6620,
      "facility": 6621,
      "reflux": 6622,
      "author": 6623,
      "tured": 6624,
      "instance": 6625,
      "twitching": 6626,
      "arguments": 6627,
      "cards": 6628,
      "Christian": 6629,
      "bursts": 6630,
      "scenarios": 6631,
      "delusions": 6632,
      "reliable": 6633,
      "conflict": 6634,
      "determined": 6635,
      "shattered": 6636,
      "Tonight": 6637,
      "38": 6638,
      "Next": 6639,
      "Spe": 6640,
      "Same": 6641,
      "Wi": 6642,
      "Wr": 6643,
      "Wat": 6644,
      "gan": 6645,
      "tok": 6646,
      "isation": 6647,
      "outlet": 6648,
      "homa": 6649,
      "coaster": 6650,
      "const": 6651,
      "diarrhea": 6652,
      "foggy": 6653,
      "spi": 6654,
      "fundam": 6655,
      "**:": 6656,
      "Somebody": 6657,
      "march": 6658,
      "script": 6659,
      "winning": 6660,
      "ranting": 6661,
      "breakdowns": 6662,
      "judgement": 6663,
      "adulthood": 6664,
      "lord": 6665,
      "flashbacks": 6666,
      "original": 6667,
      "hormones": 6668,
      "favourite": 6669,
      "benzos": 6670,
      "confirmed": 6671,
      "Struggling": 6672,
      "adrenaline": 6673,
      "traumas": 6674,
      "*.": 6675,
      "Fun": 6676,
      "Post": 6677,
      "Twit": 6678,
      "WOR": 6679,
      "equ": 6680,
      "fru": 6681,
      "oce": 6682,
      "ske": 6683,
      "sinking": 6684,
      "deserving": 6685,
      "outcast": 6686,
      "abusing": 6687,
      "justify": 6688,
      "iment": 6689,
      "dismiss": 6690,
      "disaster": 6691,
      "cheat": 6692,
      "Whatever": 6693,
      "ITH": 6694,
      "eachother": 6695,
      "visual": 6696,
      "medium": 6697,
      "eeee": 6698,
      "numbers": 6699,
      "grandpa": 6700,
      "dedic": 6701,
      "charged": 6702,
      "hhh": 6703,
      "ucing": 6704,
      "floating": 6705,
      "chatting": 6706,
      "Later": 6707,
      "nuts": 6708,
      "settled": 6709,
      "Actually": 6710,
      "''": 6711,
      "08": 6712,
      "Ab": 6713,
      "ION": 6714,
      "Ty": 6715,
      "Try": 6716,
      "sided": 6717,
      "uh": 6718,
      "alarm": 6719,
      "doses": 6720,
      "gold": 6721,
      "loy": 6722,
      "idc": 6723,
      "unlikely": 6724,
      "unexpected": 6725,
      "ils": 6726,
      "spouse": 6727,
      "boat": 6728,
      "interacting": 6729,
      "advise": 6730,
      "settle": 6731,
      "tempted": 6732,
      "deadline": 6733,
      "passions": 6734,
      "destined": 6735,
      "casual": 6736,
      "convincing": 6737,
      "finances": 6738,
      "SELF": 6739,
      "relaxing": 6740,
      "insanely": 6741,
      "SSRIs": 6742,
      "temporarily": 6743,
      "valuable": 6744,
      "penis": 6745,
      "development": 6746,
      "articles": 6747,
      "hundreds": 6748,
      "nitus": 6749,
      "stigma": 6750,
      "shifts": 6751,
      "abilify": 6752,
      "NEVER": 6753,
      "WE": 6754,
      "WITH": 6755,
      "citalopram": 6756,
      "gru": 6757,
      "gig": 6758,
      "hig": 6759,
      "junk": 6760,
      "native": 6761,
      "pse": 6762,
      "mel": 6763,
      "andom": 6764,
      "orient": 6765,
      "absent": 6766,
      "hook": 6767,
      "idential": 6768,
      "agu": 6769,
      "comparing": 6770,
      "raising": 6771,
      "plant": 6772,
      "happily": 6773,
      "spare": 6774,
      "ulti": 6775,
      "foreign": 6776,
      "contain": 6777,
      "hip": 6778,
      "hibit": 6779,
      "attending": 6780,
      "handful": 6781,
      "trips": 6782,
      "Doc": 6783,
      "crappy": 6784,
      "mornings": 6785,
      "confirm": 6786,
      "counting": 6787,
      "hydr": 6788,
      "treatments": 6789,
      "compul": 6790,
      "booked": 6791,
      "cluded": 6792,
      "negatively": 6793,
      "throwaway": 6794,
      "leader": 6795,
      "25mg": 6796,
      "snapped": 6797,
      "slee": 6798,
      "expressing": 6799,
      "feeding": 6800,
      "grabbed": 6801,
      "vomiting": 6802,
      "ambition": 6803,
      "NEED": 6804,
      "Phys": 6805,
      "sanity": 6806,
      "retarded": 6807,
      "Instagram": 6808,
      "department": 6809,
      "lighthe": 6810,
      ":**": 6811,
      "AC": 6812,
      "Sha": 6813,
      "Vie": 6814,
      "aper": 6815,
      "ddle": 6816,
      "dereal": 6817,
      "fice": 6818,
      "pac": 6819,
      "tation": 6820,
      "reject": 6821,
      "oral": 6822,
      "vehic": 6823,
      "aswell": 6824,
      "motor": 6825,
      "urine": 6826,
      "disci": 6827,
      "green": 6828,
      "minded": 6829,
      "suppress": 6830,
      "handed": 6831,
      "easiest": 6832,
      "horror": 6833,
      "statement": 6834,
      "videogames": 6835,
      "answered": 6836,
      "included": 6837,
      "powerful": 6838,
      "instit": 6839,
      "crime": 6840,
      "apologized": 6841,
      "grip": 6842,
      "crashed": 6843,
      "cancelled": 6844,
      "beliefs": 6845,
      "dumped": 6846,
      "lifted": 6847,
      "abdominal": 6848,
      "inconvenience": 6849,
      "Turns": 6850,
      "Tomorrow": 6851,
      ".-": 6852,
      "37": 6853,
      "5mg": 6854,
      "Wa": 6855,
      "gage": 6856,
      "han": 6857,
      "lm": 6858,
      "mand": 6859,
      "obe": 6860,
      "rang": 6861,
      "sinc": 6862,
      "….": 6863,
      "meat": 6864,
      "veget": 6865,
      "libi": 6866,
      "butt": 6867,
      "terminal": 6868,
      "cease": 6869,
      "weir": 6870,
      "dive": 6871,
      "quote": 6872,
      "careful": 6873,
      "sertraline": 6874,
      "heading": 6875,
      "carrying": 6876,
      "calmed": 6877,
      "giant": 6878,
      "plays": 6879,
      "drives": 6880,
      "bladder": 6881,
      "Alone": 6882,
      "cyst": 6883,
      "listens": 6884,
      "peacefully": 6885,
      "replies": 6886,
      "starve": 6887,
      "switching": 6888,
      "patch": 6889,
      "abandonment": 6890,
      "hidden": 6891,
      "brushed": 6892,
      "skipped": 6893,
      "employee": 6894,
      "relapsed": 6895,
      "creepy": 6896,
      "electri": 6897,
      "GHT": 6898,
      "crawl": 6899,
      "punishment": 6900,
      "collapse": 6901,
      "hedonia": 6902,
      "external": 6903,
      "highest": 6904,
      "View": 6905,
      "libido": 6906,
      "WK": 6907,
      "Wal": 6908,
      "cti": 6909,
      "camer": 6910,
      "iv": 6911,
      "oil": 6912,
      "forum": 6913,
      "forgiven": 6914,
      "rier": 6915,
      "adap": 6916,
      "coma": 6917,
      "coher": 6918,
      "unlovable": 6919,
      "wealth": 6920,
      "downward": 6921,
      "trag": 6922,
      "grey": 6923,
      "omen": 6924,
      "phra": 6925,
      "owner": 6926,
      "larger": 6927,
      "heartbeat": 6928,
      "smash": 6929,
      "energetic": 6930,
      "Doctor": 6931,
      "sigh": 6932,
      "hospitals": 6933,
      "00b": 6934,
      "fixing": 6935,
      "covering": 6936,
      "appears": 6937,
      "Sudden": 6938,
      "loaded": 6939,
      "Working": 6940,
      "biological": 6941,
      "linked": 6942,
      "impulse": 6943,
      "withdrawals": 6944,
      "woods": 6945,
      "objectively": 6946,
      "attachment": 6947,
      "acquaint": 6948,
      "mediocre": 6949,
      "ocean": 6950,
      "discipl": 6951,
      "((": 6952,
      "95": 6953,
      "AP": 6954,
      "Ama": 6955,
      "Bes": 6956,
      "IF": 6957,
      "Pan": 6958,
      "bang": 6959,
      "bond": 6960,
      "cab": 6961,
      "fid": 6962,
      "tag": 6963,
      "reactions": 6964,
      "alle": 6965,
      "cage": 6966,
      "holy": 6967,
      "unbelie": 6968,
      "shed": 6969,
      "imple": 6970,
      "foster": 6971,
      "joint": 6972,
      "oken": 6973,
      "famous": 6974,
      "morph": 6975,
      "chemist": 6976,
      "certi": 6977,
      "10mg": 6978,
      "roommates": 6979,
      "impending": 6980,
      "bliss": 6981,
      "shortness": 6982,
      "acceptance": 6983,
      "Anti": 6984,
      "ustral": 6985,
      "cycles": 6986,
      "flare": 6987,
      "flag": 6988,
      "Short": 6989,
      "chaos": 6990,
      "hahaha": 6991,
      "separated": 6992,
      "rotting": 6993,
      "inevitably": 6994,
      "square": 6995,
      "wisdom": 6996,
      "nails": 6997,
      "izza": 6998,
      "Earth": 6999,
      "sneak": 7000,
      ".(": 7001,
      "BT": 7002,
      "Brea": 7003,
      "Iâ": 7004,
      "bp": 7005,
      "clot": 7006,
      "dare": 7007,
      "gor": 7008,
      "wet": 7009,
      "review": 7010,
      "retire": 7011,
      "lets": 7012,
      "eli": 7013,
      "ament": 7014,
      "ample": 7015,
      "ldr": 7016,
      "model": 7017,
      "unit": 7018,
      "pod": 7019,
      "agor": 7020,
      "agers": 7021,
      "ventil": 7022,
      "lifes": 7023,
      "bleak": 7024,
      "apist": 7025,
      "manner": 7026,
      "disagree": 7027,
      "hometown": 7028,
      "brown": 7029,
      "meantime": 7030,
      "Intern": 7031,
      "stems": 7032,
      "existent": 7033,
      "Weird": 7034,
      "wondered": 7035,
      "payment": 7036,
      "ignificant": 7037,
      "ficial": 7038,
      "acceptable": 7039,
      "resulted": 7040,
      "leged": 7041,
      "generalized": 7042,
      "distracting": 7043,
      "professor": 7044,
      "nearby": 7045,
      "chap": 7046,
      "instinct": 7047,
      "itchy": 7048,
      "fatigued": 7049,
      "washed": 7050,
      "LOT": 7051,
      "allergic": 7052,
      "polite": 7053,
      "LIFE": 7054,
      "tolerate": 7055,
      "criticism": 7056,
      "overdosing": 7057,
      "supplements": 7058,
      "0mg": 7059,
      "?”": 7060,
      "GA": 7061,
      "Making": 7062,
      "Shit": 7063,
      "cate": 7064,
      "echo": 7065,
      "junior": 7066,
      "ns": 7067,
      "rr": 7068,
      "instant": 7069,
      "stit": 7070,
      "liar": 7071,
      "dome": 7072,
      "wher": 7073,
      "chy": 7074,
      "mobile": 7075,
      "loosing": 7076,
      "ceiling": 7077,
      "upcoming": 7078,
      "precious": 7079,
      "perception": 7080,
      "compassion": 7081,
      "yours": 7082,
      "calories": 7083,
      "gradually": 7084,
      "aneury": 7085,
      "spoiled": 7086,
      "prescribe": 7087,
      "concerning": 7088,
      "delay": 7089,
      "involunt": 7090,
      "bouts": 7091,
      "Constantly": 7092,
      "filling": 7093,
      "meditate": 7094,
      "tightness": 7095,
      "rabbit": 7096,
      "resentment": 7097,
      "network": 7098,
      "boundaries": 7099,
      "reflection": 7100,
      "supervisor": 7101,
      "molested": 7102,
      "discussed": 7103,
      "Cu": 7104,
      "Chi": 7105,
      "TER": 7106,
      "YE": 7107,
      "rof": 7108,
      "yer": 7109,
      "enthus": 7110,
      "lil": 7111,
      "asing": 7112,
      "loans": 7113,
      "acknowled": 7114,
      "ssri": 7115,
      "terror": 7116,
      "whats": 7117,
      "illusion": 7118,
      "prozac": 7119,
      "intens": 7120,
      "harass": 7121,
      "scale": 7122,
      "scrolling": 7123,
      "omg": 7124,
      "phen": 7125,
      "philo": 7126,
      "guessing": 7127,
      "responding": 7128,
      "corpor": 7129,
      "accused": 7130,
      "OUT": 7131,
      "audi": 7132,
      "client": 7133,
      "instagram": 7134,
      "Worried": 7135,
      "surprising": 7136,
      "minimal": 7137,
      "oxetine": 7138,
      "Poll": 7139,
      "etern": 7140,
      "Starting": 7141,
      "standards": 7142,
      "persistent": 7143,
      "guarantee": 7144,
      "uncertainty": 7145,
      "jerk": 7146,
      "scholarship": 7147,
      "billion": 7148,
      "lightheaded": 7149,
      "wherever": 7150,
      "enthusi": 7151,
      "philoso": 7152,
      ".,": 7153,
      "ARE": 7154,
      "Around": 7155,
      "BD": 7156,
      "Best": 7157,
      "Jesus": 7158,
      "bin": 7159,
      "jyp": 7160,
      "ml": 7161,
      "nab": 7162,
      "pizza": 7163,
      "score": 7164,
      "uma": 7165,
      "thma": 7166,
      "rema": 7167,
      "enses": 7168,
      "noone": 7169,
      "theek": 7170,
      "itu": 7171,
      "december": 7172,
      "ida": 7173,
      "neut": 7174,
      "confron": 7175,
      "provid": 7176,
      "raw": 7177,
      "donate": 7178,
      "roughly": 7179,
      "izes": 7180,
      "assholes": 7181,
      "theirs": 7182,
      "rowing": 7183,
      "completed": 7184,
      "shaky": 7185,
      "houses": 7186,
      "ditch": 7187,
      "submit": 7188,
      "Canada": 7189,
      "allowing": 7190,
      "Come": 7191,
      "scaring": 7192,
      "enemy": 7193,
      "blowing": 7194,
      "ignorant": 7195,
      "talented": 7196,
      "hhhhhhhh": 7197,
      "hypochondria": 7198,
      "vaccine": 7199,
      "declined": 7200,
      "deliver": 7201,
      "American": 7202,
      "exposure": 7203,
      "document": 7204,
      "adopted": 7205,
      "boredom": 7206,
      "dysphoria": 7207,
      "customers": 7208,
      "Amazon": 7209,
      "Besides": 7210,
      "agorap": 7211,
      "Ide": 7212,
      "Pu": 7213,
      "august": 7214,
      "cise": 7215,
      "dreamed": 7216,
      "eh": 7217,
      "lacking": 7218,
      "wand": 7219,
      "wra": 7220,
      "yay": 7221,
      "”,": 7222,
      "resolve": 7223,
      "researching": 7224,
      "resolved": 7225,
      "butter": 7226,
      "escal": 7227,
      "entit": 7228,
      "wasnt": 7229,
      "pocket": 7230,
      "jobless": 7231,
      "lessons": 7232,
      "server": 7233,
      "underlying": 7234,
      "puppy": 7235,
      "obst": 7236,
      "shoe": 7237,
      "sounded": 7238,
      "blade": 7239,
      "commitment": 7240,
      "reflect": 7241,
      "ALS": 7242,
      "flix": 7243,
      "IVE": 7244,
      "fantasies": 7245,
      "critical": 7246,
      "maintaining": 7247,
      "employer": 7248,
      "pounding": 7249,
      "pursuing": 7250,
      "defend": 7251,
      "coughing": 7252,
      "sinus": 7253,
      "groceries": 7254,
      "blurry": 7255,
      "application": 7256,
      "target": 7257,
      "legitimately": 7258,
      "influence": 7259,
      "absence": 7260,
      "chemistry": 7261,
      "theekween": 7262,
      "6th": 7263,
      "Find": 7264,
      "FEE": 7265,
      "GF": 7266,
      "HR": 7267,
      "Hal": 7268,
      "Pre": 7269,
      "Sex": 7270,
      "TR": 7271,
      "VEN": 7272,
      "bits": 7273,
      "swelling": 7274,
      "woken": 7275,
      "zine": 7276,
      "insp": 7277,
      "inspir": 7278,
      "anhedonia": 7279,
      "stiff": 7280,
      "army": 7281,
      "features": 7282,
      "tik": 7283,
      "format": 7284,
      "advent": 7285,
      "agra": 7286,
      "discour": 7287,
      "bott": 7288,
      "partly": 7289,
      "lame": 7290,
      "movement": 7291,
      "humor": 7292,
      "completing": 7293,
      "trade": 7294,
      "traits": 7295,
      "Doing": 7296,
      "tivity": 7297,
      "enties": 7298,
      "cramp": 7299,
      "messaging": 7300,
      "topics": 7301,
      "skull": 7302,
      "magic": 7303,
      "fasting": 7304,
      "avoidance": 7305,
      "capital": 7306,
      "clicked": 7307,
      "NOTHING": 7308,
      "ronically": 7309,
      "sorta": 7310,
      "grie": 7311,
      "tinnitus": 7312,
      "salary": 7313,
      "elevated": 7314,
      "vitamin": 7315,
      "respectful": 7316,
      "characters": 7317,
      "decades": 7318,
      "aimed": 7319,
      "occurred": 7320,
      "insult": 7321,
      "twenties": 7322,
      "remaining": 7323,
      "patterns": 7324,
      "moderate": 7325,
      "campus": 7326,
      "disturbing": 7327,
      "seizure": 7328,
      "antipsychotics": 7329,
      "platform": 7330,
      "fragile": 7331,
      "5th": 7332,
      "Hate": 7333,
      "RN": 7334,
      "Vent": 7335,
      "Wo": 7336,
      "ause": 7337,
      "bust": 7338,
      "bird": 7339,
      "firm": 7340,
      "gia": 7341,
      "iju": 7342,
      "mall": 7343,
      "mund": 7344,
      "ops": 7345,
      "inte": 7346,
      "ongoing": 7347,
      "theory": 7348,
      "lip": 7349,
      "asy": 7350,
      "domin": 7351,
      "depri": 7352,
      "rog": 7353,
      "exe": 7354,
      "earning": 7355,
      "prospects": 7356,
      "monday": 7357,
      "painting": 7358,
      "relent": 7359,
      "apparent": 7360,
      "owned": 7361,
      "buried": 7362,
      "desires": 7363,
      "tremend": 7364,
      "vote": 7365,
      "empathetic": 7366,
      "hydro": 7367,
      "unique": 7368,
      "latest": 7369,
      "darker": 7370,
      "dumbass": 7371,
      "qualified": 7372,
      "punished": 7373,
      "values": 7374,
      "consume": 7375,
      "lymphoma": 7376,
      "organization": 7377,
      "neurologist": 7378,
      "competition": 7379,
      "fulfilled": 7380,
      "creeping": 7381,
      "tearing": 7382,
      "automatically": 7383,
      "hrs": 7384,
      "tolerance": 7385,
      "EVERYTHING": 7386,
      "detached": 7387,
      "GET": 7388,
      "figuring": 7389,
      "Question": 7390,
      "poverty": 7391,
      "ijuana": 7392,
      "//": 7393,
      "Emotion": 7394,
      "Mind": 7395,
      "Res": 7396,
      "Tit": 7397,
      "gur": 7398,
      "scold": 7399,
      "vill": 7400,
      "thick": 7401,
      "ino": 7402,
      "informed": 7403,
      "returning": 7404,
      "itting": 7405,
      "defici": 7406,
      "ads": 7407,
      "unattractive": 7408,
      "exception": 7409,
      "shall": 7410,
      "shits": 7411,
      "distress": 7412,
      "estab": 7413,
      "stub": 7414,
      "scam": 7415,
      "cheek": 7416,
      "handling": 7417,
      "mothers": 7418,
      "cuddle": 7419,
      "insignificant": 7420,
      "micro": 7421,
      "climate": 7422,
      "flood": 7423,
      "phobic": 7424,
      "Constant": 7425,
      "ghosting": 7426,
      "phases": 7427,
      "Meds": 7428,
      "kkkk": 7429,
      "belly": 7430,
      "HHHH": 7431,
      "provided": 7432,
      "deteriorating": 7433,
      "ordinary": 7434,
      "aspirations": 7435,
      "Effexor": 7436,
      "FEEL": 7437,
      "Ben": 7438,
      "Fin": 7439,
      "HOW": 7440,
      "Imag": 7441,
      "IBS": 7442,
      "Je": 7443,
      "TE": 7444,
      "Were": 7445,
      "dish": 7446,
      "evol": 7447,
      "omy": 7448,
      "rance": 7449,
      "sar": 7450,
      "sought": 7451,
      "thel": 7452,
      "beside": 7453,
      "lips": 7454,
      "liest": 7455,
      "dop": 7456,
      "dozen": 7457,
      "heck": 7458,
      "irre": 7459,
      "perpet": 7460,
      "perfection": 7461,
      "immature": 7462,
      "ruins": 7463,
      "whore": 7464,
      "chocol": 7465,
      "extro": 7466,
      "grasp": 7467,
      "greed": 7468,
      "fearing": 7469,
      "crete": 7470,
      "topi": 7471,
      "positivity": 7472,
      "halfway": 7473,
      "freeze": 7474,
      "trusting": 7475,
      "imagined": 7476,
      "upsetting": 7477,
      "autopi": 7478,
      "ONG": 7479,
      "judg": 7480,
      "chain": 7481,
      "programs": 7482,
      "Mean": 7483,
      "sales": 7484,
      "obsession": 7485,
      "END": 7486,
      "Mania": 7487,
      "scienti": 7488,
      "gentle": 7489,
      "talents": 7490,
      "briefly": 7491,
      "reckless": 7492,
      "ironic": 7493,
      "knocked": 7494,
      "vaccinated": 7495,
      "originally": 7496,
      "applications": 7497,
      "occupied": 7498,
      "clarity": 7499,
      "strategies": 7500,
      "oxygen": 7501,
      "blanket": 7502,
      "inflam": 7503,
      "constip": 7504,
      "Twitter": 7505,
      "establish": 7506,
      ":'": 7507,
      "Lea": 7508,
      "Mu": 7509,
      "Wow": 7510,
      "awa": 7511,
      "ev": 7512,
      "ese": 7513,
      "knot": 7514,
      "piling": 7515,
      "inch": 7516,
      "indeed": 7517,
      "anni": 7518,
      "refu": 7519,
      "replaced": 7520,
      "ensure": 7521,
      "stated": 7522,
      "alys": 7523,
      "libr": 7524,
      "forming": 7525,
      "fornia": 7526,
      "outgoing": 7527,
      "river": 7528,
      "moon": 7529,
      "icial": 7530,
      "antly": 7531,
      "adic": 7532,
      "coinc": 7533,
      "unrelated": 7534,
      "shor": 7535,
      "shine": 7536,
      "hers": 7537,
      "convo": 7538,
      "xia": 7539,
      "spine": 7540,
      "couldnt": 7541,
      "Soon": 7542,
      "vial": 7543,
      "prin": 7544,
      "emotionless": 7545,
      "childish": 7546,
      "player": 7547,
      "blocking": 7548,
      "resting": 7549,
      "Took": 7550,
      "hospitalization": 7551,
      "......": 7552,
      "shots": 7553,
      "ficient": 7554,
      "Losing": 7555,
      "exercises": 7556,
      "degrees": 7557,
      "description": 7558,
      "petty": 7559,
      "VERY": 7560,
      "masherbs": 7561,
      "reference": 7562,
      "intentions": 7563,
      "slam": 7564,
      "associate": 7565,
      "circles": 7566,
      "uuuu": 7567,
      "dysfunctional": 7568,
      "injured": 7569,
      "effectively": 7570,
      "rapidly": 7571,
      "sacrifice": 7572,
      "antibiotics": 7573,
      "neutral": 7574,
      "mundane": 7575,
      "stubborn": 7576,
      "thelmasherbs": 7577,
      "autopilot": 7578,
      "120": 7579,
      "AK": 7580,
      "Brain": 7581,
      "Made": 7582,
      "UP": 7583,
      "Wonder": 7584,
      "ctivity": 7585,
      "dge": 7586,
      "fb": 7587,
      "faint": 7588,
      "pess": 7589,
      "tte": 7590,
      "reput": 7591,
      "itiz": 7592,
      "eling": 7593,
      "elder": 7594,
      "lik": 7595,
      "dete": 7596,
      "ripped": 7597,
      "acet": 7598,
      "cannab": 7599,
      "unpleasant": 7600,
      "daydreaming": 7601,
      "preface": 7602,
      "concrete": 7603,
      "dian": 7604,
      "digest": 7605,
      "tazapine": 7606,
      "workplace": 7607,
      "guide": 7608,
      "ciating": 7609,
      "mption": 7610,
      "chosen": 7611,
      "ctu": 7612,
      "monthly": 7613,
      "paint": 7614,
      "killers": 7615,
      "structure": 7616,
      "bug": 7617,
      "tical": 7618,
      "Everybody": 7619,
      "curl": 7620,
      "paragra": 7621,
      "object": 7622,
      "listed": 7623,
      "logic": 7624,
      "steady": 7625,
      "meetings": 7626,
      "catching": 7627,
      "terrifies": 7628,
      "expenses": 7629,
      "importantly": 7630,
      "alcoholism": 7631,
      "produce": 7632,
      "nonsense": 7633,
      "ramble": 7634,
      "approaching": 7635,
      "istics": 7636,
      "sunday": 7637,
      "qualify": 7638,
      "massage": 7639,
      "stabbing": 7640,
      "arguing": 7641,
      "hyperventil": 7642,
      "nurses": 7643,
      "reduced": 7644,
      "neighbors": 7645,
      "buddy": 7646,
      "intelligence": 7647,
      "exposed": 7648,
      "twisted": 7649,
      "Medication": 7650,
      "derealization": 7651,
      "vehicle": 7652,
      "entitled": 7653,
      "chocolate": 7654,
      "pessim": 7655,
      "paragraph": 7656,
      "07": 7657,
      "Ask": 7658,
      "Bad": 7659,
      "Cal": 7660,
      "Car": 7661,
      "Europe": 7662,
      "GER": 7663,
      "Joh": 7664,
      "Lol": 7665,
      "bread": 7666,
      "gang": 7667,
      "ji": 7668,
      "ule": 7669,
      "xanax": 7670,
      "toes": 7671,
      "resc": 7672,
      "keys": 7673,
      "hehe": 7674,
      "agitated": 7675,
      "joining": 7676,
      "oldest": 7677,
      "ulations": 7678,
      "dismissed": 7679,
      "grace": 7680,
      "laz": 7681,
      "string": 7682,
      "cursed": 7683,
      "trend": 7684,
      "deny": 7685,
      "RED": 7686,
      "openly": 7687,
      "200mg": 7688,
      "grave": 7689,
      "resign": 7690,
      "repet": 7691,
      "nonstop": 7692,
      "spectrum": 7693,
      "daughters": 7694,
      "criminal": 7695,
      "techno": 7696,
      "accomplishments": 7697,
      "bags": 7698,
      "encouraging": 7699,
      "manipulated": 7700,
      "football": 7701,
      "\\*\\*": 7702,
      "devastating": 7703,
      "radi": 7704,
      "contract": 7705,
      "investig": 7706,
      "hesitant": 7707,
      "shouting": 7708,
      "America": 7709,
      "haunted": 7710,
      "seizures": 7711,
      "swimming": 7712,
      "frozen": 7713,
      "compliment": 7714,
      "challenging": 7715,
      "Major": 7716,
      "cocktail": 7717,
      "Panic": 7718,
      "aneurysm": 7719,
      "Title": 7720,
      "dopamine": 7721,
      "Blo": 7722,
      "DM": 7723,
      "Dream": 7724,
      "Ger": 7725,
      "HU": 7726,
      "RA": 7727,
      "USE": 7728,
      "dressed": 7729,
      "tack": 7730,
      "thom": 7731,
      "tori": 7732,
      "hable": 7733,
      "veins": 7734,
      "depersonal": 7735,
      "tier": 7736,
      "tify": 7737,
      "outlook": 7738,
      "aby": 7739,
      "entering": 7740,
      "coz": 7741,
      "ives": 7742,
      "promo": 7743,
      "affair": 7744,
      "hired": 7745,
      "closure": 7746,
      "carbon": 7747,
      "attribut": 7748,
      "horic": 7749,
      "bloody": 7750,
      "versary": 7751,
      "latuda": 7752,
      "basket": 7753,
      "marijuana": 7754,
      "valent": 7755,
      "Dec": 7756,
      "THER": 7757,
      "appealing": 7758,
      "rushed": 7759,
      "internally": 7760,
      "suggestion": 7761,
      "noticeable": 7762,
      "involves": 7763,
      "nursing": 7764,
      "explore": 7765,
      "skipping": 7766,
      "resource": 7767,
      "dysfunction": 7768,
      "individuals": 7769,
      "nutr": 7770,
      "Normal": 7771,
      "Normally": 7772,
      "worsened": 7773,
      "doubts": 7774,
      "heroin": 7775,
      "privileged": 7776,
      "uncontrollable": 7777,
      "procedure": 7778,
      "!)": 7779,
      ":-": 7780,
      "Cut": 7781,
      "Pri": 7782,
      "biz": 7783,
      "eed": 7784,
      "lli": 7785,
      "tank": 7786,
      "meI": 7787,
      "asthma": 7788,
      "keting": 7789,
      "dearly": 7790,
      "rified": 7791,
      "congrat": 7792,
      "sheer": 7793,
      "proven": 7794,
      "plastic": 7795,
      "plagu": 7796,
      "makeup": 7797,
      "intensive": 7798,
      "longing": 7799,
      "boom": 7800,
      "trad": 7801,
      "clus": 7802,
      "centered": 7803,
      "athle": 7804,
      "named": 7805,
      "fund": 7806,
      "mini": 7807,
      "minist": 7808,
      "advoc": 7809,
      "carried": 7810,
      "deciding": 7811,
      "mattered": 7812,
      "trial": 7813,
      "trivial": 7814,
      "entia": 7815,
      "facebook": 7816,
      "ANYTHING": 7817,
      "boyfriends": 7818,
      "creativity": 7819,
      "witness": 7820,
      "muster": 7821,
      "answering": 7822,
      "float": 7823,
      "processing": 7824,
      "south": 7825,
      "trained": 7826,
      "approval": 7827,
      "milk": 7828,
      "snack": 7829,
      "nesium": 7830,
      "Proble": 7831,
      "partially": 7832,
      "restlessness": 7833,
      "beneficial": 7834,
      "withdraw": 7835,
      "preventing": 7836,
      "convenient": 7837,
      "LIKE": 7838,
      "banned": 7839,
      "crossed": 7840,
      "decline": 7841,
      "genetic": 7842,
      "College": 7843,
      "phew": 7844,
      "Suddenly": 7845,
      "podcast": 7846,
      "eternity": 7847,
      "library": 7848,
      "\"?": 7849,
      "65": 7850,
      "9th": 7851,
      "Bro": 7852,
      "CG": 7853,
      "HP": 7854,
      "Int": 7855,
      "Might": 7856,
      "Str": 7857,
      "Ter": 7858,
      "eties": 7859,
      "miz": 7860,
      "oth": 7861,
      "pink": 7862,
      "tac": 7863,
      "tends": 7864,
      "ert": 7865,
      "static": 7866,
      "novel": 7867,
      "asc": 7868,
      "ridden": 7869,
      "absur": 7870,
      "unwell": 7871,
      "unemployment": 7872,
      "nephew": 7873,
      "conce": 7874,
      "impression": 7875,
      "compar": 7876,
      "prob": 7877,
      "ruciating": 7878,
      "essay": 7879,
      "Three": 7880,
      "angel": 7881,
      "gray": 7882,
      "paren": 7883,
      "reassure": 7884,
      "Head": 7885,
      "naive": 7886,
      "navig": 7887,
      "stressors": 7888,
      "calming": 7889,
      "attended": 7890,
      "showered": 7891,
      "greater": 7892,
      "eats": 7893,
      "graphy": 7894,
      "girlfriends": 7895,
      "facial": 7896,
      "laughs": 7897,
      "reminding": 7898,
      "flip": 7899,
      "specialist": 7900,
      "landed": 7901,
      "Except": 7902,
      "HERE": 7903,
      "practicing": 7904,
      "surrounding": 7905,
      "vanse": 7906,
      "basement": 7907,
      "radio": 7908,
      "labor": 7909,
      "serotonin": 7910,
      "bowel": 7911,
      "darkest": 7912,
      "Talking": 7913,
      "meltdown": 7914,
      "Damn": 7915,
      "alysis": 7916,
      "Blood": 7917,
      "300mg": 7918,
      "AF": 7919,
      "Val": 7920,
      "bour": 7921,
      "hence": 7922,
      "mart": 7923,
      "sca": 7924,
      "restrain": 7925,
      "metal": 7926,
      "alo": 7927,
      "elig": 7928,
      "arre": 7929,
      "desc": 7930,
      "chu": 7931,
      "riding": 7932,
      "aces": 7933,
      "unlucky": 7934,
      "pla": 7935,
      "offing": 7936,
      "realistically": 7937,
      "gger": 7938,
      "intervention": 7939,
      "bestfriend": 7940,
      "moves": 7941,
      "hugged": 7942,
      "heartbreak": 7943,
      "handsome": 7944,
      "Thankfully": 7945,
      "fiction": 7946,
      "excruciating": 7947,
      "Dealing": 7948,
      "classmate": 7949,
      "bloodwork": 7950,
      "Remember": 7951,
      "freel": 7952,
      "images": 7953,
      "failures": 7954,
      "escap": 7955,
      "100mg": 7956,
      "distractions": 7957,
      "products": 7958,
      "includes": 7959,
      "stars": 7960,
      "phomore": 7961,
      "achieving": 7962,
      "fatal": 7963,
      "disappearing": 7964,
      "occasion": 7965,
      "volunt": 7966,
      "educated": 7967,
      "destruction": 7968,
      "Little": 7969,
      "oooooooo": 7970,
      "politics": 7971,
      "difficulties": 7972,
      "demanding": 7973,
      "worsening": 7974,
      "overdosed": 7975,
      "measure": 7976,
      "Throughout": 7977,
      "ruminating": 7978,
      "perceived": 7979,
      "bodies": 7980,
      "duty": 7981,
      "indifferent": 7982,
      "resume": 7983,
      "ustralia": 7984,
      "absurd": 7985,
      "DON": 7986,
      "Fi": 7987,
      "Ly": 7988,
      "Night": 7989,
      "RO": 7990,
      "Und": 7991,
      "ased": 7992,
      "gall": 7993,
      "gers": 7994,
      "gling": 7995,
      "kne": 7996,
      "pig": 7997,
      "pants": 7998,
      "packing": 7999,
      "rlly": 8000,
      "wrap": 8001,
      "independ": 8002,
      "inadequate": 8003,
      "sting": 8004,
      "veys": 8005,
      "dol": 8006,
      "mole": 8007,
      "ican": 8008,
      "acul": 8009,
      "caine": 8010,
      "sucking": 8011,
      "unting": 8012,
      "shallow": 8013,
      "odds": 8014,
      "promotion": 8015,
      "rub": 8016,
      "blessed": 8017,
      "stole": 8018,
      "forest": 8019,
      "hurry": 8020,
      "minds": 8021,
      "bugs": 8022,
      "pushes": 8023,
      "otine": 8024,
      "lightly": 8025,
      "cudd": 8026,
      "pressive": 8027,
      "supposedly": 8028,
      "Read": 8029,
      "explic": 8030,
      "ADD": 8031,
      "Stay": 8032,
      "kicks": 8033,
      "blames": 8034,
      "clinically": 8035,
      "ounced": 8036,
      "rupted": 8037,
      "recommendations": 8038,
      "SHIT": 8039,
      "software": 8040,
      "Psycho": 8041,
      "migraine": 8042,
      "designed": 8043,
      "ropion": 8044,
      "bubble": 8045,
      "graphic": 8046,
      "dorm": 8047,
      "coherent": 8048,
      "Internet": 8049,
      "domestic": 8050,
      "deprived": 8051,
      "deficiency": 8052,
      "John": 8053,
      "Eating": 8054,
      "ECT": 8055,
      "KILL": 8056,
      "Mis": 8057,
      "MDD": 8058,
      "NA": 8059,
      "Tre": 8060,
      "bis": 8061,
      "cam": 8062,
      "fif": 8063,
      "ht": 8064,
      "mation": 8065,
      "pon": 8066,
      "ramp": 8067,
      "inep": 8068,
      "intake": 8069,
      "inappropriate": 8070,
      "incompetent": 8071,
      "bee": 8072,
      "elt": 8073,
      "dehydr": 8074,
      "tick": 8075,
      "chin": 8076,
      "aced": 8077,
      "pest": 8078,
      "pear": 8079,
      "unnecessary": 8080,
      "mato": 8081,
      "wean": 8082,
      "shr": 8083,
      "shing": 8084,
      "posed": 8085,
      "permission": 8086,
      "acked": 8087,
      "tap": 8088,
      "tele": 8089,
      "forehead": 8090,
      "docs": 8091,
      "obli": 8092,
      "served": 8093,
      "begins": 8094,
      "magically": 8095,
      "generic": 8096,
      "ooo": 8097,
      "explains": 8098,
      "ifications": 8099,
      "weaker": 8100,
      "embrace": 8101,
      "anore": 8102,
      "glasses": 8103,
      "zzidc": 8104,
      "irritability": 8105,
      "achievement": 8106,
      "referral": 8107,
      "dragged": 8108,
      "counsell": 8109,
      "piano": 8110,
      "invested": 8111,
      "crawling": 8112,
      "aaaaaaaaaaaaaaaa": 8113,
      "sabotaging": 8114,
      "soooo": 8115,
      "limbo": 8116,
      "companies": 8117,
      "gifted": 8118,
      "Russi": 8119,
      "grieving": 8120,
      "execut": 8121,
      "Imagine": 8122,
      "anniversary": 8123,
      "acetam": 8124,
      "mizzzidc": 8125,
      "8th": 8126,
      "CON": 8127,
      "IE": 8128,
      "Rant": 8129,
      "Rest": 8130,
      "Random": 8131,
      "Taking": 8132,
      "UE": 8133,
      "YY": 8134,
      "fri": 8135,
      "fading": 8136,
      "glu": 8137,
      "iles": 8138,
      "ku": 8139,
      "mac": 8140,
      "mill": 8141,
      "mouse": 8142,
      "slu": 8143,
      "slump": 8144,
      "uce": 8145,
      "wine": 8146,
      "infli": 8147,
      "bell": 8148,
      "wired": 8149,
      "mais": 8150,
      "popping": 8151,
      "pers": 8152,
      "astically": 8153,
      "beings": 8154,
      "goodnight": 8155,
      "tiredness": 8156,
      "claimed": 8157,
      "tortured": 8158,
      "mors": 8159,
      "cheaper": 8160,
      "singing": 8161,
      "meanwhile": 8162,
      "prone": 8163,
      "hugs": 8164,
      "hearted": 8165,
      "impacted": 8166,
      "**.": 8167,
      "attacked": 8168,
      "generation": 8169,
      "checks": 8170,
      "ughter": 8171,
      "drawn": 8172,
      "contacted": 8173,
      "benign": 8174,
      "tub": 8175,
      "lecture": 8176,
      "crumble": 8177,
      "tendency": 8178,
      "threaten": 8179,
      "healed": 8180,
      "punched": 8181,
      "prayer": 8182,
      "fantastic": 8183,
      "sensitivity": 8184,
      "lawyer": 8185,
      "osity": 8186,
      "protected": 8187,
      "tablets": 8188,
      "neurological": 8189,
      "oxide": 8190,
      "emails": 8191,
      "!!!!!!!!": 8192,
      "LOVE": 8193,
      "dissociation": 8194,
      "knock": 8195,
      "neighborhood": 8196,
      "resistant": 8197,
      "rationally": 8198,
      "frame": 8199,
      "arrested": 8200,
      "econom": 8201,
      "flirting": 8202,
      "accurate": 8203,
      "liquid": 8204,
      "chapter": 8205,
      "confronted": 8206,
      "pessimistic": 8207,
      "repetitive": 8208,
      "ACT": 8209,
      "EVEN": 8210,
      "Found": 8211,
      "Ge": 8212,
      "Job": 8213,
      "Mor": 8214,
      "Sum": 8215,
      "WILL": 8216,
      "jam": 8217,
      "laf": 8218,
      "mma": 8219,
      "twent": 8220,
      "vag": 8221,
      "vably": 8222,
      "zu": 8223,
      "ths": 8224,
      "infin": 8225,
      "angu": 8226,
      "erb": 8227,
      "stain": 8228,
      "ality": 8229,
      "sep": 8230,
      "ofc": 8231,
      "arrog": 8232,
      "sophomore": 8233,
      "wiki": 8234,
      "chunk": 8235,
      "endured": 8236,
      "upstairs": 8237,
      "exac": 8238,
      "prexa": 8239,
      "poop": 8240,
      "rug": 8241,
      "intent": 8242,
      "gotta": 8243,
      "disabilities": 8244,
      "bos": 8245,
      "rights": 8246,
      "downstairs": 8247,
      "hateful": 8248,
      "realising": 8249,
      "misdiagnosed": 8250,
      "clown": 8251,
      "prano": 8252,
      "understandable": 8253,
      "pump": 8254,
      "orders": 8255,
      "India": 8256,
      "REAM": 8257,
      "subconsciously": 8258,
      "borrow": 8259,
      "learnt": 8260,
      "secondary": 8261,
      "pressing": 8262,
      "corpse": 8263,
      "classic": 8264,
      "follows": 8265,
      "facade": 8266,
      "allows": 8267,
      "Stu": 8268,
      "MEN": 8269,
      "productivity": 8270,
      "psychother": 8271,
      "shutting": 8272,
      "supports": 8273,
      "continuously": 8274,
      "promises": 8275,
      "relaxation": 8276,
      "apologies": 8277,
      "fourth": 8278,
      "insecurity": 8279,
      "EDIT": 8280,
      "organized": 8281,
      "millions": 8282,
      "participants": 8283,
      "claims": 8284,
      "insults": 8285,
      "Seems": 8286,
      "concentration": 8287,
      "combined": 8288,
      "dirt": 8289,
      "ambitions": 8290,
      "Hypo": 8291,
      "virtual": 8292,
      "DIE": 8293,
      "camera": 8294,
      "unbelievably": 8295,
      "remains": 8296,
      "Under": 8297,
      "55": 8298,
      "911": 8299,
      "ECG": 8300,
      "Lon": 8301,
      "Low": 8302,
      "MD": 8303,
      "Main": 8304,
      "evic": 8305,
      "ians": 8306,
      "jus": 8307,
      "nation": 8308,
      "plot": 8309,
      "snee": 8310,
      "warr": 8311,
      "inje": 8312,
      "reset": 8313,
      "encounter": 8314,
      "ork": 8315,
      "amins": 8316,
      "outpatient": 8317,
      "acute": 8318,
      "justified": 8319,
      "entry": 8320,
      "unloved": 8321,
      "daydream": 8322,
      "cony": 8323,
      "arts": 8324,
      "progre": 8325,
      "overnight": 8326,
      "stones": 8327,
      "medy": 8328,
      "fathom": 8329,
      "sert": 8330,
      "vibes": 8331,
      "wellbutrin": 8332,
      "homes": 8333,
      "2015": 8334,
      "senti": 8335,
      "10x": 8336,
      "paras": 8337,
      "Inter": 8338,
      "steal": 8339,
      "tricks": 8340,
      "lists": 8341,
      "cramps": 8342,
      "compens": 8343,
      "180": 8344,
      "superficial": 8345,
      "psychopath": 8346,
      "connecting": 8347,
      "pressured": 8348,
      "smooth": 8349,
      "escaping": 8350,
      "concert": 8351,
      "tues": 8352,
      "balcony": 8353,
      "quietly": 8354,
      "threats": 8355,
      "Ext": 8356,
      "ATE": 8357,
      "belongings": 8358,
      "shotgun": 8359,
      "writer": 8360,
      "packed": 8361,
      "Guys": 8362,
      "swallowing": 8363,
      "journaling": 8364,
      "procrastinating": 8365,
      "technique": 8366,
      "cigarette": 8367,
      "adderall": 8368,
      "immensely": 8369,
      "legitimate": 8370,
      "proceeded": 8371,
      "introduced": 8372,
      "Between": 8373,
      "Diagno": 8374,
      "tapering": 8375,
      "comprehend": 8376,
      "confess": 8377,
      "xyzine": 8378,
      "loyal": 8379,
      "oriented": 8380,
      "tragic": 8381,
      "phrase": 8382,
      "agoraphobia": 8383,
      "Cy": 8384,
      "Emp": 8385,
      "FF": 8386,
      "FO": 8387,
      "Gener": 8388,
      "NY": 8389,
      "bast": 8390,
      "crea": 8391,
      "dre": 8392,
      "ema": 8393,
      "ngest": 8394,
      "twin": 8395,
      "ums": 8396,
      "thir": 8397,
      "infe": 8398,
      "error": 8399,
      "tour": 8400,
      "toys": 8401,
      "ats": 8402,
      "enrolled": 8403,
      "ord": 8404,
      "solo": 8405,
      "utic": 8406,
      "timid": 8407,
      "forces": 8408,
      "sus": 8409,
      "covers": 8410,
      "irresponsible": 8411,
      "painfully": 8412,
      "stumble": 8413,
      "beforehand": 8414,
      "Note": 8415,
      "clen": 8416,
      "file": 8417,
      "stands": 8418,
      "nah": 8419,
      "horrend": 8420,
      "obtain": 8421,
      "deadly": 8422,
      "subjects": 8423,
      "comprom": 8424,
      "considerate": 8425,
      "hunger": 8426,
      "casually": 8427,
      "silently": 8428,
      "ringing": 8429,
      "approved": 8430,
      "fluctu": 8431,
      "progressively": 8432,
      "spiraled": 8433,
      "accommod": 8434,
      "Experi": 8435,
      "clining": 8436,
      "cussion": 8437,
      "priority": 8438,
      "insulted": 8439,
      "allergy": 8440,
      "affirm": 8441,
      "baseline": 8442,
      "TIME": 8443,
      "located": 8444,
      "budget": 8445,
      "additional": 8446,
      "travelling": 8447,
      "maxim": 8448,
      "Psychiat": 8449,
      "solely": 8450,
      "restrictions": 8451,
      "stretch": 8452,
      "virtually": 8453,
      "WAYS": 8454,
      "evaluation": 8455,
      "pharmacy": 8456,
      "diplo": 8457,
      "vegetable": 8458,
      "providing": 8459,
      "nutrition": 8460,
      "eligible": 8461,
      "twenty": 8462,
      "pranolol": 8463,
      "',": 8464,
      "?.": 8465,
      "BB": 8466,
      "Live": 8467,
      "Min": 8468,
      "Mine": 8469,
      "Pare": 8470,
      "PER": 8471,
      "Plan": 8472,
      "Ram": 8473,
      "Sever": 8474,
      "WAS": 8475,
      "een": 8476,
      "hen": 8477,
      "june": 8478,
      "january": 8479,
      "lou": 8480,
      "lined": 8481,
      "pel": 8482,
      "pra": 8483,
      "rit": 8484,
      "tant": 8485,
      "zer": 8486,
      "thursday": 8487,
      "erase": 8488,
      "rect": 8489,
      "sters": 8490,
      "ando": 8491,
      "semb": 8492,
      "declining": 8493,
      "wich": 8494,
      "chal": 8495,
      "peer": 8496,
      "cond": 8497,
      "earned": 8498,
      "diary": 8499,
      "sheets": 8500,
      "anxieties": 8501,
      "careless": 8502,
      "igning": 8503,
      "brat": 8504,
      "contacts": 8505,
      "cheese": 8506,
      "hier": 8507,
      "naked": 8508,
      "funds": 8509,
      "smth": 8510,
      "10th": 8511,
      "stepping": 8512,
      "fearful": 8513,
      "honesty": 8514,
      "deaths": 8515,
      "deadlines": 8516,
      "magical": 8517,
      "18th": 8518,
      "recipro": 8519,
      "harmful": 8520,
      "facts": 8521,
      "engaging": 8522,
      "definition": 8523,
      "charges": 8524,
      "battery": 8525,
      "apology": 8526,
      "examples": 8527,
      "racist": 8528,
      "Worst": 8529,
      "twitpic": 8530,
      "sory": 8531,
      "risky": 8532,
      "stabbed": 8533,
      "transp": 8534,
      "garage": 8535,
      "diabe": 8536,
      "competitive": 8537,
      "contributing": 8538,
      "CBD": 8539,
      "allergies": 8540,
      "warmth": 8541,
      "fleeting": 8542,
      "purely": 8543,
      "bumps": 8544,
      "Comple": 8545,
      "sabotage": 8546,
      "uncontrollably": 8547,
      "--------------------------------": 8548,
      "AAAAAAAAAAAAAAAAAAAAAAAAAAAAAAAAAAAAAAAAAAAAAAAAAAAAAAAAAAAAAAAAAAAAAAAAAAAAAAAAAAAAAAAAAAAAAAAAAAAAAAAAAAAAAAAAAAAAAAAAAAAAAAAAAAAAAAAAAAAAAAAAAAAAAAAAAAAAAAAAAAAAAAAAAAAAAAAAAAAAAAAAAAAAAAAAAAAAAAAAAAAAAAAAAAAAAAAAAAAAAAAAAAAAAAAAAAAAAAAAAAAAAAAAAAAAAAAAAAAAAAAAAAAAAAAAAAAAAAAAAAAAAAAAAAAAAAAAAAAAAAAAAAAAAAAAAAAAAAAAAAAAAAAAAAAAAAAAAAAAAAAAAAAAAAAAAAAAAAAAAAAAAAAAAAAAAAAAAAAAAAAAAAAAAAAAAAAAAAAAAAAAAAAAAAAAAAAAAAAAAAAAAAAAAAAAAAAAAAAAAAAAAAAAAAAAAAAAAAAAAAAAAAAAAAAAAAAAAAAAAAAAAAAAAAAAAAAAAAAAAAAAAAAAAAAAAAAAAAAAAAAAAAAAAAAAAAAAAAAAAAAAAAAAAAAAAAAAAAAAAAAAAAAAAAAAAAAAAAAAAAAAAAAAAAAAAAAAAAAAAAAAAAAAAAAAAAAAAAAAAAAAAAAAAAAAAAAAAAAAAAAAAAAAAAAAAAAAAAAAAAAAAAAAAAAAAAAAAAAAAAAAAAAAAAAAAAAAAAAAAAAAAAAAAAAAAAAAAAAAAAAAAAAAAAAAAAAAAAAAAAAAAAAAAAAAAAAAAAAAAAAAAAAAAAAAAAAAAAAAAAAAAAAAAAAAAAAAAAAAAAAAAAAAAAAAAAAAAAAAAAAAAAAAAAAAAAAAAAAAAAAAAAAAAAAAAAAAAAAAAAAAAAAAAAAAAAAAAAAAAAAAAAAAAAAAAAAAAAAAAAAAAAAAAAAAAAAAAAAAAAAAAAAAAAAAAAAAAAAAAAAAAAAAAAAAAAAAAAAAAAAAAAAAAAAAAAAAAAAAAAAAAAAAAAAAAAAAAAAAAAAAAAAAAAAAAAAAAAAAAAAA": 8549,
      "Great": 8550,
      "spinning": 8551,
      "yellow": 8552,
      "apeutic": 8553,
      "assessment": 8554,
      "surprisingly": 8555,
      "technology": 8556,
      "abyss": 8557,
      "bizarre": 8558,
      "acetamol": 8559,
      "bastard": 8560,
      "):": 8561,
      "39": 8562,
      "400": 8563,
      "7th": 8564,
      "DID": 8565,
      "FU": 8566,
      "Hur": 8567,
      "bak": 8568,
      "cities": 8569,
      "cries": 8570,
      "fare": 8571,
      "mam": 8572,
      "mute": 8573,
      "national": 8574,
      "pier": 8575,
      "sits": 8576,
      "tly": 8577,
      "xim": 8578,
      "atable": 8579,
      "myster": 8580,
      "default": 8581,
      "riosity": 8582,
      "theres": 8583,
      "therapeutic": 8584,
      "hop": 8585,
      "cocaine": 8586,
      "unaware": 8587,
      "unfortunate": 8588,
      "tering": 8589,
      "furious": 8590,
      "indul": 8591,
      "proces": 8592,
      "plu": 8593,
      "illegal": 8594,
      "choke": 8595,
      "killer": 8596,
      "traged": 8597,
      "morbid": 8598,
      "fucker": 8599,
      "pract": 8600,
      "hearts": 8601,
      "nerves": 8602,
      "publ": 8603,
      "Somehow": 8604,
      "drivers": 8605,
      "severity": 8606,
      "couples": 8607,
      "testic": 8608,
      "expects": 8609,
      "Deep": 8610,
      "october": 8611,
      "arrange": 8612,
      "stepdad": 8613,
      "rushing": 8614,
      "speaker": 8615,
      "expectation": 8616,
      "desperation": 8617,
      "STILL": 8618,
      "UCH": 8619,
      "Supp": 8620,
      "roads": 8621,
      "crumbling": 8622,
      "instances": 8623,
      "Home": 8624,
      "crimin": 8625,
      "accompan": 8626,
      "apologise": 8627,
      "twitches": 8628,
      "accomplishment": 8629,
      "jealousy": 8630,
      "MYSELF": 8631,
      "intellect": 8632,
      "horrific": 8633,
      "yyyy": 8634,
      "spreading": 8635,
      "amongst": 8636,
      "Wanting": 8637,
      "reported": 8638,
      "modern": 8639,
      "procrastinate": 8640,
      "humiliated": 8641,
      "temperature": 8642,
      "exaggerating": 8643,
      "errors": 8644,
      "buprof": 8645,
      "lethar": 8646,
      "Depakote": 8647,
      "allevi": 8648,
      "buprofen": 8649,
      "Ang": 8650,
      "Bel": 8651,
      "Give": 8652,
      "IG": 8653,
      "PRE": 8654,
      "VT": 8655,
      "cc": 8656,
      "fain": 8657,
      "fridge": 8658,
      "mc": 8659,
      "mun": 8660,
      "mere": 8661,
      "turing": 8662,
      "vain": 8663,
      "lesc": 8664,
      "ari": 8665,
      "lifel": 8666,
      "ril": 8667,
      "robbed": 8668,
      "mot": 8669,
      "lover": 8670,
      "accus": 8671,
      "hooked": 8672,
      "youngest": 8673,
      "entin": 8674,
      "unts": 8675,
      "upbringing": 8676,
      "neu": 8677,
      "lifeless": 8678,
      "Thro": 8679,
      "needles": 8680,
      "ishing": 8681,
      "offering": 8682,
      "wore": 8683,
      "sche": 8684,
      "misunderstood": 8685,
      "opath": 8686,
      "buspar": 8687,
      "impati": 8688,
      "latter": 8689,
      "comfortably": 8690,
      "weirdly": 8691,
      "visi": 8692,
      "anticip": 8693,
      "imaginary": 8694,
      "aaa": 8695,
      "Peace": 8696,
      "international": 8697,
      "mentioning": 8698,
      "OULD": 8699,
      "ignores": 8700,
      "saturday": 8701,
      "powerless": 8702,
      "traumatizing": 8703,
      "hideous": 8704,
      "landlord": 8705,
      "THEY": 8706,
      "communicating": 8707,
      "paperwork": 8708,
      "sticks": 8709,
      "Manic": 8710,
      "?!?!": 8711,
      "dementia": 8712,
      "endlessly": 8713,
      "fancy": 8714,
      "thorough": 8715,
      "nicotine": 8716,
      "revealed": 8717,
      "karma": 8718,
      "cannabis": 8719,
      "depersonalization": 8720,
      "plagued": 8721,
      "tuesday": 8722,
      "Parents": 8723,
      "130": 8724,
      "DBT": 8725,
      "DREAM": 8726,
      "FIN": 8727,
      "GOD": 8728,
      "HO": 8729,
      "KS": 8730,
      "Mc": 8731,
      "Mod": 8732,
      "ae": 8733,
      "bay": 8734,
      "baw": 8735,
      "brid": 8736,
      "cort": 8737,
      "dk": 8738,
      "furn": 8739,
      "iq": 8740,
      "otic": 8741,
      "shave": 8742,
      "tab": 8743,
      "tang": 8744,
      "upped": 8745,
      "vast": 8746,
      "âœ": 8747,
      "inable": 8748,
      "noises": 8749,
      "nostal": 8750,
      "elim": 8751,
      "verti": 8752,
      "wipe": 8753,
      "outsider": 8754,
      "rib": 8755,
      "mos": 8756,
      "adds": 8757,
      "suspected": 8758,
      "uneasy": 8759,
      "uper": 8760,
      "popped": 8761,
      "div": 8762,
      "plants": 8763,
      "spit": 8764,
      "spas": 8765,
      "backed": 8766,
      "backstory": 8767,
      "Their": 8768,
      "gues": 8769,
      "stolen": 8770,
      "quer": 8771,
      "mph": 8772,
      "choking": 8773,
      "discord": 8774,
      "persons": 8775,
      "anged": 8776,
      "dum": 8777,
      "drastically": 8778,
      "advanced": 8779,
      "cardi": 8780,
      "curable": 8781,
      "Week": 8782,
      "horny": 8783,
      "subs": 8784,
      "curiosity": 8785,
      "fixable": 8786,
      "berty": 8787,
      "spots": 8788,
      "expand": 8789,
      "legally": 8790,
      "depends": 8791,
      "hunting": 8792,
      "Stuck": 8793,
      "property": 8794,
      "temple": 8795,
      "Comp": 8796,
      "Mostly": 8797,
      "pale": 8798,
      "recognized": 8799,
      "adolesc": 8800,
      "surroundings": 8801,
      "contemplated": 8802,
      "flesh": 8803,
      "celebrating": 8804,
      "custody": 8805,
      "Makes": 8806,
      "chemicals": 8807,
      "alienated": 8808,
      "Sadly": 8809,
      "euphoria": 8810,
      "Human": 8811,
      "Doctors": 8812,
      "discouraged": 8813,
      "inflammation": 8814,
      "counsellor": 8815,
      "exacerb": 8816,
      "Extreme": 8817,
      "))": 8818,
      ".#": 8819,
      "/\\\\": 8820,
      "64": 8821,
      "?\".": 8822,
      "Big": 8823,
      "Cong": 8824,
      "Men": 8825,
      "Sing": 8826,
      "War": 8827,
      "dang": 8828,
      "ffer": 8829,
      "slo": 8830,
      "wits": 8831,
      "™‚": 8832,
      "thirst": 8833,
      "onset": 8834,
      "relying": 8835,
      "meta": 8836,
      "altogether": 8837,
      "nope": 8838,
      "haunt": 8839,
      "befriend": 8840,
      "articul": 8841,
      "whining": 8842,
      "define": 8843,
      "chills": 8844,
      "outweigh": 8845,
      "rice": 8846,
      "ica": 8847,
      "justice": 8848,
      "idio": 8849,
      "como": 8850,
      "untreated": 8851,
      "ryl": 8852,
      "pops": 8853,
      "poem": 8854,
      "venge": 8855,
      "dign": 8856,
      "intended": 8857,
      "needle": 8858,
      "ulcer": 8859,
      "offers": 8860,
      "offended": 8861,
      "discover": 8862,
      "schoolwork": 8863,
      "vibr": 8864,
      "clon": 8865,
      "tically": 8866,
      "surveys": 8867,
      "deals": 8868,
      "calcul": 8869,
      "stealing": 8870,
      "incor": 8871,
      "empath": 8872,
      "drifting": 8873,
      "fails": 8874,
      "substances": 8875,
      "sian": 8876,
      "bland": 8877,
      "genes": 8878,
      "excell": 8879,
      "grows": 8880,
      "pedo": 8881,
      "aneously": 8882,
      "spirone": 8883,
      "profit": 8884,
      "defined": 8885,
      "hotlines": 8886,
      "State": 8887,
      "flashes": 8888,
      "balanced": 8889,
      "crushes": 8890,
      "Tips": 8891,
      "raylar": 8892,
      "World": 8893,
      "slipped": 8894,
      "raining": 8895,
      "ENT": 8896,
      "cowardly": 8897,
      "mildly": 8898,
      "addictions": 8899,
      "piss": 8900,
      "practical": 8901,
      "separation": 8902,
      "squee": 8903,
      "GPA": 8904,
      "arrive": 8905,
      "ultimate": 8906,
      "performing": 8907,
      "blessing": 8908,
      "procrastination": 8909,
      "guaranteed": 8910,
      "companion": 8911,
      "stabilizers": 8912,
      "homophobic": 8913,
      "decrease": 8914,
      "fruit": 8915,
      "dedicated": 8916,
      "obese": 8917,
      "cabin": 8918,
      "fidget": 8919,
      "corporate": 8920,
      "tiktok": 8921,
      "reputation": 8922,
      "comparison": 8923,
      "september": 8924,
      "diploma": 8925,
      "diabetic": 8926,
      "85": 8927,
      "Care": 8928,
      "Cali": 8929,
      "Felt": 8930,
      "Hear": 8931,
      "Ik": 8932,
      "Klonopin": 8933,
      "MAN": 8934,
      "MUCH": 8935,
      "Stre": 8936,
      "WA": 8937,
      "Wtf": 8938,
      "cel": 8939,
      "citiz": 8940,
      "fm": 8941,
      "flaws": 8942,
      "gently": 8943,
      "mort": 8944,
      "merely": 8945,
      "nine": 8946,
      "ology": 8947,
      "rhy": 8948,
      "sack": 8949,
      "tent": 8950,
      "yu": 8951,
      "intest": 8952,
      "anch": 8953,
      "anus": 8954,
      "toms": 8955,
      "rec": 8956,
      "stag": 8957,
      "leech": 8958,
      "artery": 8959,
      "lio": 8960,
      "limp": 8961,
      "exas": 8962,
      "expression": 8963,
      "whatnot": 8964,
      "imposter": 8965,
      "tingly": 8966,
      "aps": 8967,
      "talkative": 8968,
      "append": 8969,
      "finals": 8970,
      "heads": 8971,
      "mattress": 8972,
      "medically": 8973,
      "bury": 8974,
      "bucks": 8975,
      "surge": 8976,
      "pron": 8977,
      "enced": 8978,
      "heartbreaking": 8979,
      "puke": 8980,
      "shamed": 8981,
      "stepped": 8982,
      "kidding": 8983,
      "tempting": 8984,
      "craft": 8985,
      "counc": 8986,
      "magnesium": 8987,
      "appeal": 8988,
      "imagination": 8989,
      "ALWAYS": 8990,
      "draft": 8991,
      "nonexist": 8992,
      "grounded": 8993,
      "shuts": 8994,
      "distancing": 8995,
      "promising": 8996,
      "admitting": 8997,
      "chased": 8998,
      "hahahaha": 8999,
      "flipped": 9000,
      "dyn": 9001,
      "increases": 9002,
      "Consider": 9003,
      "COM": 9004,
      "package": 9005,
      "USA": 9006,
      "debating": 9007,
      "thymia": 9008,
      "Pls": 9009,
      "EVERYONE": 9010,
      "Follow": 9011,
      "wounds": 9012,
      "150mg": 9013,
      "masters": 9014,
      "PCP": 9015,
      "obligation": 9016,
      "taxes": 9017,
      "crowd": 9018,
      "abortion": 9019,
      "fundamentally": 9020,
      "sincerely": 9021,
      "forgiveness": 9022,
      "acquaintances": 9023,
      "intensity": 9024,
      "philosophy": 9025,
      "constipation": 9026,
      "shorter": 9027,
      "AI": 9028,
      "BU": 9029,
      "Call": 9030,
      "List": 9031,
      "Net": 9032,
      "Open": 9033,
      "PT": 9034,
      "UU": 9035,
      "Vi": 9036,
      "Yo": 9037,
      "dal": 9038,
      "drow": 9039,
      "fir": 9040,
      "fasc": 9041,
      "hn": 9042,
      "hs": 9043,
      "hmm": 9044,
      "mme": 9045,
      "mim": 9046,
      "nis": 9047,
      "ore": 9048,
      "sof": 9049,
      "tro": 9050,
      "tinder": 9051,
      "wre": 9052,
      "zens": 9053,
      "towel": 9054,
      "todd": 9055,
      "repul": 9056,
      "stere": 9057,
      "anda": 9058,
      "ori": 9059,
      "sele": 9060,
      "sob": 9061,
      "forbid": 9062,
      "uster": 9063,
      "mold": 9064,
      "ician": 9065,
      "absor": 9066,
      "loo": 9067,
      "loat": 9068,
      "coast": 9069,
      "unsafe": 9070,
      "termin": 9071,
      "exchange": 9072,
      "exclus": 9073,
      "poly": 9074,
      "pota": 9075,
      "willpower": 9076,
      "epile": 9077,
      "digging": 9078,
      "propranolol": 9079,
      "overcame": 9080,
      "ounds": 9081,
      "apine": 9082,
      "apentin": 9083,
      "needy": 9084,
      "monia": 9085,
      "whereas": 9086,
      "discharged": 9087,
      "download": 9088,
      "relates": 9089,
      "appt": 9090,
      "headphones": 9091,
      "interpret": 9092,
      "partying": 9093,
      "partum": 9094,
      "highway": 9095,
      "desir": 9096,
      "puberty": 9097,
      "trail": 9098,
      "para": 9099,
      "paracetamol": 9100,
      "showers": 9101,
      "colleague": 9102,
      "isocial": 9103,
      "dawn": 9104,
      "marketing": 9105,
      "stupidly": 9106,
      "juice": 9107,
      "confide": 9108,
      "damned": 9109,
      "purchase": 9110,
      "president": 9111,
      "figures": 9112,
      "spiralling": 9113,
      "resulting": 9114,
      "HAPP": 9115,
      "mentions": 9116,
      "hypothetic": 9117,
      "replying": 9118,
      "opposed": 9119,
      "charity": 9120,
      "nonetheless": 9121,
      "delusion": 9122,
      "clients": 9123,
      "risks": 9124,
      "intensely": 9125,
      "sunny": 9126,
      "races": 9127,
      "organs": 9128,
      "flies": 9129,
      "strive": 9130,
      "rained": 9131,
      "boxes": 9132,
      "manipulate": 9133,
      "contributed": 9134,
      "mirtazapine": 9135,
      "political": 9136,
      "sweats": 9137,
      "sweaty": 9138,
      "Left": 9139,
      "detailed": 9140,
      "gratitude": 9141,
      "lenol": 9142,
      "experiment": 9143,
      "volunteer": 9144,
      "euphoric": 9145,
      "variety": 9146,
      "sleepless": 9147,
      "electricity": 9148,
      "discipline": 9149,
      "Child": 9150,
      "Emotional": 9151,
      "knees": 9152,
      "lafax": 9153,
      "arrogant": 9154,
      "Diagnosed": 9155,
      "/\\\\/\\\\": 9156,
      "%.": 9157,
      "-/": 9158,
      "2x": 9159,
      "3x": 9160,
      "Bye": 9161,
      "GI": 9162,
      "Growing": 9163,
      "Mr": 9164,
      "Money": 9165,
      "Sick": 9166,
      "SAD": 9167,
      "TF": 9168,
      "\\~": 9169,
      "fried": 9170,
      "hint": 9171,
      "lation": 9172,
      "mically": 9173,
      "nc": 9174,
      "rated": 9175,
      "tldr": 9176,
      "inhal": 9177,
      "retain": 9178,
      "strea": 9179,
      "stanti": 9180,
      "stared": 9181,
      "alar": 9182,
      "alert": 9183,
      "isy": 9184,
      "ela": 9185,
      "asian": 9186,
      "ami": 9187,
      "fet": 9188,
      "versa": 9189,
      "tims": 9190,
      "abapentin": 9191,
      "antisocial": 9192,
      "admi": 9193,
      "hol": 9194,
      "hobic": 9195,
      "unconscious": 9196,
      "unmedicated": 9197,
      "unworthy": 9198,
      "mainten": 9199,
      "excluded": 9200,
      "neys": 9201,
      "conserv": 9202,
      "proje": 9203,
      "sauce": 9204,
      "afloat": 9205,
      "olism": 9206,
      "monoxide": 9207,
      "relatable": 9208,
      "hardships": 9209,
      "scra": 9210,
      "item": 9211,
      "elses": 9212,
      "elsewhere": 9213,
      "vibe": 9214,
      "morse": 9215,
      "norm": 9216,
      "biting": 9217,
      "desired": 9218,
      "attain": 9219,
      "sensory": 9220,
      "ffs": 9221,
      "worthwhile": 9222,
      "dreamies": 9223,
      "sip": 9224,
      "confidential": 9225,
      "damaging": 9226,
      "resident": 9227,
      "Cancer": 9228,
      "worthlessness": 9229,
      "yees": 9230,
      "affective": 9231,
      "purposely": 9232,
      "describing": 9233,
      "thole": 9234,
      "directed": 9235,
      "bearing": 9236,
      "attraction": 9237,
      "raya": 9238,
      "slide": 9239,
      "paths": 9240,
      "qualities": 9241,
      "programming": 9242,
      "volu": 9243,
      "deepest": 9244,
      "prayed": 9245,
      "scarred": 9246,
      "policy": 9247,
      "ATION": 9248,
      "commented": 9249,
      "decides": 9250,
      "withdrawn": 9251,
      "psychologists": 9252,
      "manipulation": 9253,
      "devil": 9254,
      "valued": 9255,
      "satisfy": 9256,
      "bottles": 9257,
      "discussing": 9258,
      "websites": 9259,
      "clingy": 9260,
      "WHO": 9261,
      "defense": 9262,
      "prescriptions": 9263,
      "euthan": 9264,
      "dysmorph": 9265,
      "agrees": 9266,
      "deleting": 9267,
      "transferred": 9268,
      "requested": 9269,
      "hesitate": 9270,
      "operate": 9271,
      "excessively": 9272,
      "cherry": 9273,
      "obligated": 9274,
      "clarify": 9275,
      "doubting": 9276,
      "Parti": 9277,
      "candy": 9278,
      "stabilizer": 9279,
      "gambling": 9280,
      "transportation": 9281,
      "institution": 9282,
      "laziness": 9283,
      "infected": 9284,
      "horrendous": 9285,
[...]
